#ifndef MODEL_T_H
#define MODEL_T_H

static unsigned char model_tflite[] = {
  0x1c, 0x00, 0x00, 0x00, 0x54, 0x46, 0x4c, 0x33, 0x14, 0x00, 0x20, 0x00,
  0x1c, 0x00, 0x18, 0x00, 0x14, 0x00, 0x10, 0x00, 0x0c, 0x00, 0x00, 0x00,
  0x08, 0x00, 0x04, 0x00, 0x14, 0x00, 0x00, 0x00, 0x1c, 0x00, 0x00, 0x00,
  0x94, 0x00, 0x00, 0x00, 0xec, 0x00, 0x00, 0x00, 0x40, 0x30, 0x00, 0x00,
  0x50, 0x30, 0x00, 0x00, 0x3c, 0x37, 0x00, 0x00, 0x03, 0x00, 0x00, 0x00,
  0x01, 0x00, 0x00, 0x00, 0x10, 0x00, 0x00, 0x00, 0x00, 0x00, 0x0a, 0x00,
  0x10, 0x00, 0x0c, 0x00, 0x08, 0x00, 0x04, 0x00, 0x0a, 0x00, 0x00, 0x00,
  0x0c, 0x00, 0x00, 0x00, 0x1c, 0x00, 0x00, 0x00, 0x3c, 0x00, 0x00, 0x00,
  0x0f, 0x00, 0x00, 0x00, 0x73, 0x65, 0x72, 0x76, 0x69, 0x6e, 0x67, 0x5f,
  0x64, 0x65, 0x66, 0x61, 0x75, 0x6c, 0x74, 0x00, 0x01, 0x00, 0x00, 0x00,
  0x04, 0x00, 0x00, 0x00, 0x94, 0xff, 0xff, 0xff, 0x0d, 0x00, 0x00, 0x00,
  0x04, 0x00, 0x00, 0x00, 0x08, 0x00, 0x00, 0x00, 0x6f, 0x75, 0x74, 0x70,
  0x75, 0x74, 0x5f, 0x30, 0x00, 0x00, 0x00, 0x00, 0x01, 0x00, 0x00, 0x00,
  0x04, 0x00, 0x00, 0x00, 0xa2, 0xcf, 0xff, 0xff, 0x04, 0x00, 0x00, 0x00,
  0x0b, 0x00, 0x00, 0x00, 0x69, 0x6e, 0x70, 0x75, 0x74, 0x5f, 0x6c, 0x61,
  0x79, 0x65, 0x72, 0x00, 0x02, 0x00, 0x00, 0x00, 0x34, 0x00, 0x00, 0x00,
  0x04, 0x00, 0x00, 0x00, 0xdc, 0xff, 0xff, 0xff, 0x10, 0x00, 0x00, 0x00,
  0x04, 0x00, 0x00, 0x00, 0x13, 0x00, 0x00, 0x00, 0x43, 0x4f, 0x4e, 0x56,
  0x45, 0x52, 0x53, 0x49, 0x4f, 0x4e, 0x5f, 0x4d, 0x45, 0x54, 0x41, 0x44,
  0x41, 0x54, 0x41, 0x00, 0x08, 0x00, 0x0c, 0x00, 0x08, 0x00, 0x04, 0x00,
  0x08, 0x00, 0x00, 0x00, 0x0f, 0x00, 0x00, 0x00, 0x04, 0x00, 0x00, 0x00,
  0x13, 0x00, 0x00, 0x00, 0x6d, 0x69, 0x6e, 0x5f, 0x72, 0x75, 0x6e, 0x74,
  0x69, 0x6d, 0x65, 0x5f, 0x76, 0x65, 0x72, 0x73, 0x69, 0x6f, 0x6e, 0x00,
  0x11, 0x00, 0x00, 0x00, 0x50, 0x2f, 0x00, 0x00, 0x48, 0x2f, 0x00, 0x00,
  0x38, 0x2c, 0x00, 0x00, 0x28, 0x0c, 0x00, 0x00, 0x18, 0x04, 0x00, 0x00,
  0xfc, 0x03, 0x00, 0x00, 0xec, 0x02, 0x00, 0x00, 0x5c, 0x02, 0x00, 0x00,
  0x0c, 0x02, 0x00, 0x00, 0xbc, 0x00, 0x00, 0x00, 0xb4, 0x00, 0x00, 0x00,
  0xac, 0x00, 0x00, 0x00, 0xa4, 0x00, 0x00, 0x00, 0x9c, 0x00, 0x00, 0x00,
  0x94, 0x00, 0x00, 0x00, 0x74, 0x00, 0x00, 0x00, 0x04, 0x00, 0x00, 0x00,
  0x5e, 0xd0, 0xff, 0xff, 0x04, 0x00, 0x00, 0x00, 0x60, 0x00, 0x00, 0x00,
  0x10, 0x00, 0x00, 0x00, 0x00, 0x00, 0x00, 0x00, 0x08, 0x00, 0x0e, 0x00,
  0x08, 0x00, 0x04, 0x00, 0x08, 0x00, 0x00, 0x00, 0x10, 0x00, 0x00, 0x00,
  0x24, 0x00, 0x00, 0x00, 0x00, 0x00, 0x06, 0x00, 0x08, 0x00, 0x04, 0x00,
  0x06, 0x00, 0x00, 0x00, 0x04, 0x00, 0x00, 0x00, 0x00, 0x00, 0x00, 0x00,
  0x0c, 0x00, 0x18, 0x00, 0x14, 0x00, 0x10, 0x00, 0x0c, 0x00, 0x04, 0x00,
  0x0c, 0x00, 0x00, 0x00, 0xe6, 0xde, 0x79, 0xd5, 0xeb, 0x98, 0xc7, 0xa8,
  0x02, 0x00, 0x00, 0x00, 0x02, 0x00, 0x00, 0x00, 0x04, 0x00, 0x00, 0x00,
  0x06, 0x00, 0x00, 0x00, 0x32, 0x2e, 0x31, 0x38, 0x2e, 0x30, 0x00, 0x00,
  0xca, 0xd0, 0xff, 0xff, 0x04, 0x00, 0x00, 0x00, 0x10, 0x00, 0x00, 0x00,
  0x31, 0x2e, 0x35, 0x2e, 0x30, 0x00, 0x00, 0x00, 0x00, 0x00, 0x00, 0x00,
  0x00, 0x00, 0x00, 0x00, 0xac, 0xca, 0xff, 0xff, 0xb0, 0xca, 0xff, 0xff,
  0xb4, 0xca, 0xff, 0xff, 0xb8, 0xca, 0xff, 0xff, 0xbc, 0xca, 0xff, 0xff,
  0xfa, 0xd0, 0xff, 0xff, 0x04, 0x00, 0x00, 0x00, 0x40, 0x01, 0x00, 0x00,
  0x39, 0xd1, 0x06, 0xbf, 0x90, 0x4b, 0x82, 0xbe, 0x93, 0xd8, 0x91, 0xbe,
  0x79, 0x07, 0x8e, 0x3d, 0x47, 0xf9, 0x02, 0xbf, 0x40, 0x73, 0x40, 0x3d,
  0xd9, 0xbe, 0xd4, 0xbd, 0x24, 0x2a, 0x4d, 0xbe, 0xf2, 0x9c, 0x8b, 0xbe,
  0x8c, 0x80, 0xca, 0x3e, 0x86, 0x06, 0x1c, 0xbe, 0x4b, 0x00, 0x36, 0xbf,
  0x65, 0x21, 0xa7, 0x3e, 0xac, 0xbf, 0x11, 0xbe, 0x91, 0x8b, 0x16, 0xbf,
  0xde, 0xde, 0x60, 0x3e, 0x2e, 0x4f, 0x35, 0xbe, 0xf8, 0x3a, 0x37, 0x3f,
  0x19, 0x5f, 0xda, 0x3c, 0xda, 0xa7, 0x5d, 0x3f, 0x53, 0x44, 0xfa, 0x3d,
  0x40, 0xb6, 0x59, 0x3f, 0x93, 0xf4, 0xfb, 0xbe, 0xcc, 0xb3, 0x93, 0xbd,
  0x88, 0x10, 0xbd, 0xbe, 0xd5, 0x86, 0xfa, 0x3e, 0x58, 0xc9, 0x8f, 0x3e,
  0x41, 0x02, 0x56, 0x3e, 0x3b, 0x01, 0xff, 0x3e, 0x2a, 0x3f, 0x48, 0xbe,
  0x46, 0x3b, 0x01, 0xbf, 0xca, 0x47, 0x10, 0x3f, 0xba, 0xd6, 0xf8, 0xbe,
  0xb6, 0xd3, 0xe8, 0x3c, 0xae, 0x66, 0x3d, 0x3f, 0xae, 0x6f, 0xb7, 0xbd,
  0x40, 0xd4, 0x5b, 0xbf, 0xdf, 0x9d, 0xfe, 0xbe, 0x3d, 0x4f, 0x98, 0x3d,
  0xb6, 0x6c, 0x15, 0xbf, 0x43, 0xcd, 0x1f, 0xbf, 0x05, 0xcc, 0x06, 0xbf,
  0xf3, 0x05, 0x56, 0x3f, 0x4d, 0x18, 0x3a, 0xbd, 0x89, 0x42, 0xb0, 0xbe,
  0x86, 0xe2, 0x04, 0xbf, 0x96, 0x7f, 0x5b, 0x3f, 0xeb, 0x16, 0xa9, 0x3e,
  0x10, 0x2d, 0x2c, 0x3d, 0xa8, 0x17, 0x72, 0x3e, 0xeb, 0x1e, 0x90, 0x3d,
  0xde, 0x1f, 0x73, 0xbe, 0x54, 0xe5, 0xe5, 0x3e, 0x17, 0xe6, 0xe8, 0x39,
  0xa2, 0x72, 0x40, 0x3d, 0xc0, 0x87, 0xde, 0xbe, 0x29, 0xf4, 0xdc, 0x3e,
  0x04, 0xdd, 0x88, 0x3e, 0x44, 0x46, 0xbc, 0xbd, 0xbd, 0x0a, 0xd4, 0xbe,
  0x38, 0x7a, 0x83, 0xbb, 0xdc, 0x2b, 0x63, 0x3d, 0xf7, 0xac, 0x3c, 0xbf,
  0x2c, 0x55, 0x0f, 0x3e, 0x5f, 0x52, 0x44, 0x3f, 0xa4, 0x4a, 0x5f, 0x3e,
  0xea, 0x7b, 0x5a, 0x3e, 0x03, 0x85, 0xbd, 0x3c, 0xd4, 0xe5, 0x84, 0xbd,
  0x2e, 0x4a, 0x51, 0xbf, 0xb0, 0x35, 0x4f, 0x3f, 0xe3, 0x35, 0xf0, 0xbe,
  0xec, 0x8e, 0xa2, 0x3e, 0xe3, 0x3b, 0xfb, 0x3c, 0x1a, 0x79, 0x0b, 0x3f,
  0x2b, 0xdf, 0xfe, 0x3e, 0xe0, 0x41, 0x42, 0xbf, 0xa4, 0xe5, 0xb1, 0x3e,
  0x52, 0x12, 0xc5, 0x3d, 0x99, 0xff, 0x62, 0x3e, 0x46, 0xd2, 0xff, 0xff,
  0x04, 0x00, 0x00, 0x00, 0x40, 0x00, 0x00, 0x00, 0x5a, 0x7f, 0xc0, 0x3e,
  0x9c, 0xe3, 0x23, 0x3e, 0x9b, 0xc8, 0x5b, 0xbe, 0x49, 0x81, 0x38, 0xbe,
  0x94, 0x1c, 0x98, 0x3e, 0xf7, 0xf5, 0xd0, 0xbe, 0x7f, 0x34, 0x3e, 0x3e,
  0xf0, 0x19, 0x1f, 0xbf, 0xbb, 0x99, 0xc1, 0xbe, 0xbe, 0xaa, 0x02, 0xbe,
  0xe7, 0x15, 0x15, 0x3f, 0x85, 0x4c, 0x19, 0x3e, 0xc0, 0x28, 0x61, 0x3e,
  0xbe, 0xd2, 0x9a, 0xbe, 0xf9, 0x80, 0x88, 0xbe, 0x74, 0xdd, 0xb2, 0x3e,
  0x92, 0xd2, 0xff, 0xff, 0x04, 0x00, 0x00, 0x00, 0x80, 0x00, 0x00, 0x00,
  0xf9, 0x15, 0xf5, 0xbd, 0x46, 0x84, 0xb0, 0x3e, 0x2d, 0x73, 0x71, 0xbd,
  0xe8, 0xdc, 0xb3, 0x3e, 0xff, 0x1d, 0xb7, 0xbd, 0x6c, 0x4a, 0x25, 0x3e,
  0x91, 0xb1, 0xa7, 0x3e, 0x92, 0x2d, 0x8c, 0xbd, 0xb5, 0xda, 0xba, 0xbe,
  0x57, 0xfa, 0x5d, 0xbe, 0x31, 0x85, 0x27, 0x3e, 0x73, 0x00, 0x2c, 0x3e,
  0xca, 0xae, 0xc5, 0xbd, 0xf2, 0xf5, 0x8c, 0xbd, 0xac, 0x3d, 0x5c, 0xbc,
  0x59, 0xbd, 0x85, 0xbd, 0x09, 0x1d, 0xa1, 0x3d, 0xa0, 0xd2, 0xbe, 0xbe,
  0x9d, 0x1f, 0x7a, 0x3d, 0xa4, 0x2e, 0x6e, 0x3e, 0x1b, 0xa2, 0xa1, 0x3e,
  0xe0, 0x9e, 0x97, 0x3e, 0x53, 0xe3, 0xd0, 0x3d, 0x3a, 0xa1, 0xb8, 0xbc,
  0xf1, 0x10, 0xab, 0x3e, 0x6f, 0x0e, 0xfa, 0x3e, 0xef, 0xdb, 0xc5, 0xbc,
  0x91, 0x3b, 0xd3, 0xbc, 0xaa, 0xe9, 0x26, 0xbd, 0x56, 0x26, 0xc8, 0xbc,
  0xad, 0x40, 0xd5, 0x3d, 0x03, 0x1a, 0xa4, 0xbe, 0x1e, 0xd3, 0xff, 0xff,
  0x04, 0x00, 0x00, 0x00, 0x00, 0x01, 0x00, 0x00, 0x63, 0x1c, 0x2f, 0x3e,
  0x74, 0x59, 0xe4, 0x3d, 0xeb, 0xb5, 0x28, 0x3c, 0xc0, 0x44, 0x10, 0x3e,
  0x06, 0x60, 0x07, 0xbe, 0x6c, 0x73, 0x39, 0x3e, 0x5c, 0x44, 0x93, 0x3e,
  0x42, 0x0d, 0x27, 0x3e, 0x99, 0xd7, 0xb6, 0x3c, 0x5a, 0x77, 0x30, 0x3e,
  0x85, 0x04, 0x51, 0xbd, 0x71, 0x25, 0xcb, 0xbd, 0x76, 0x24, 0x95, 0xbd,
  0x30, 0xbb, 0x95, 0x3d, 0x40, 0x05, 0x17, 0xbd, 0x28, 0xc0, 0x8d, 0x3d,
  0xdf, 0x4c, 0x81, 0x3e, 0x1e, 0x8c, 0x9a, 0x3d, 0x0d, 0xaa, 0x28, 0xbd,
  0x2b, 0xc4, 0x3c, 0xbd, 0x39, 0x48, 0xa2, 0x3d, 0x44, 0xe7, 0x9e, 0xbe,
  0xee, 0xb2, 0x79, 0x3d, 0x0b, 0x1a, 0x06, 0x3e, 0x33, 0x4d, 0x0a, 0x3e,
  0x91, 0xf3, 0x5a, 0xbd, 0x35, 0xe4, 0x6d, 0xbd, 0x71, 0x1f, 0xe1, 0xbd,
  0xf7, 0x99, 0x8c, 0x3e, 0xd9, 0x2b, 0x60, 0x3d, 0x84, 0x9e, 0x34, 0x3e,
  0x10, 0x12, 0x3b, 0x3e, 0xf1, 0x3e, 0x4a, 0x3d, 0x28, 0xb7, 0x99, 0xbc,
  0x50, 0xeb, 0xc9, 0xbc, 0xea, 0xf5, 0x5a, 0xbd, 0x57, 0x5e, 0xb9, 0x3c,
  0x47, 0xd5, 0xa6, 0x3e, 0xc4, 0x60, 0x0e, 0xbd, 0xd0, 0xdc, 0x8a, 0x3e,
  0x1c, 0x33, 0xa0, 0x3e, 0x06, 0xde, 0x93, 0x3d, 0x00, 0x00, 0x00, 0x00,
  0x80, 0xbc, 0xd3, 0x3e, 0xe2, 0x50, 0x27, 0x3b, 0x21, 0x02, 0x21, 0x3e,
  0xf6, 0xa0, 0x8b, 0xbb, 0x68, 0xd6, 0xe6, 0xbd, 0x50, 0xa4, 0x8e, 0x3d,
  0x49, 0xb9, 0x1f, 0x3e, 0x57, 0x06, 0xc3, 0x3d, 0x0d, 0x7d, 0x4e, 0xbd,
  0x53, 0x05, 0xfe, 0xbc, 0x4d, 0x84, 0xe8, 0xbc, 0xbe, 0x5c, 0xf2, 0x3d,
  0x3b, 0x16, 0x91, 0xbd, 0x04, 0x1f, 0xb3, 0x3d, 0x92, 0x2d, 0x91, 0x3d,
  0xd6, 0x93, 0xe3, 0xbc, 0x24, 0x56, 0x43, 0x3d, 0x58, 0xc6, 0xe0, 0x3d,
  0x45, 0x98, 0x97, 0x3e, 0x3e, 0x55, 0x4e, 0x3e, 0x90, 0x33, 0x05, 0xbd,
  0x2a, 0xd4, 0xff, 0xff, 0x04, 0x00, 0x00, 0x00, 0x0c, 0x00, 0x00, 0x00,
  0xec, 0xda, 0x5e, 0x3d, 0x07, 0x1c, 0xc1, 0xbd, 0xd1, 0xeb, 0xea, 0x3c,
  0x42, 0xd4, 0xff, 0xff, 0x04, 0x00, 0x00, 0x00, 0x00, 0x08, 0x00, 0x00,
  0x6c, 0x61, 0xbc, 0xbe, 0x3a, 0xc6, 0xf2, 0x3d, 0x70, 0x77, 0x5e, 0xbe,
  0x41, 0x70, 0xd0, 0xbd, 0x2a, 0x24, 0x9e, 0x3e, 0x3c, 0xc1, 0x49, 0x3e,
  0xd0, 0x41, 0x03, 0x3f, 0x5e, 0xd0, 0x08, 0x3f, 0x34, 0x13, 0xf2, 0x3b,
  0x1f, 0x99, 0x07, 0x3b, 0x25, 0x63, 0xf5, 0xbe, 0x69, 0xf9, 0x2c, 0x3e,
  0xdb, 0xb2, 0x4d, 0x3d, 0xa4, 0x5c, 0xb2, 0x3e, 0x39, 0x75, 0xac, 0x3e,
  0x2c, 0xb5, 0xaf, 0x3d, 0x3d, 0x8f, 0xe4, 0x3e, 0xcc, 0xca, 0xe1, 0x3a,
  0x02, 0x45, 0xc3, 0xbe, 0xe8, 0x34, 0x25, 0xbe, 0x12, 0xfe, 0x31, 0x3c,
  0xf0, 0x62, 0x96, 0xbd, 0xf8, 0x0a, 0x12, 0x3d, 0xe3, 0xd8, 0x18, 0xbf,
  0x9b, 0x72, 0x81, 0xbe, 0x5c, 0xd8, 0xd6, 0x3d, 0x96, 0x3a, 0x35, 0xbc,
  0xe7, 0x25, 0x92, 0x3e, 0xdc, 0xb2, 0x30, 0xbd, 0x2b, 0xc3, 0xc3, 0xbe,
  0x08, 0xc6, 0x29, 0x3e, 0x02, 0x5b, 0x49, 0xbe, 0x83, 0x4a, 0xaf, 0x3e,
  0x44, 0xc9, 0xda, 0xbe, 0xc3, 0x10, 0xba, 0x3e, 0x32, 0x12, 0xb3, 0xbe,
  0xc7, 0x0c, 0x64, 0x3e, 0xbd, 0x43, 0x3b, 0xbf, 0x7e, 0xb5, 0xf6, 0x3d,
  0x53, 0x8c, 0x71, 0x3e, 0xdf, 0x1c, 0x60, 0xbf, 0x2a, 0x01, 0x47, 0xbe,
  0x66, 0x72, 0xdc, 0xbe, 0xdb, 0xdb, 0xbf, 0x3e, 0xf8, 0xec, 0xe6, 0x3e,
  0x9d, 0xaf, 0xfa, 0x3e, 0x2b, 0xaa, 0x0d, 0xbe, 0x57, 0x2d, 0xf0, 0xbe,
  0x6e, 0x47, 0x20, 0x3e, 0x48, 0x8f, 0x4f, 0xbd, 0x65, 0xf5, 0x79, 0xbd,
  0x1c, 0xa8, 0x8a, 0xbf, 0x44, 0xf7, 0x44, 0xbe, 0x4a, 0x4e, 0xf8, 0xbe,
  0xdf, 0x1e, 0x64, 0x3e, 0x5f, 0xa8, 0x92, 0x3d, 0xa0, 0x66, 0x80, 0xbf,
  0xaa, 0x8a, 0xac, 0x3e, 0x7f, 0x64, 0x67, 0x3e, 0xf4, 0x70, 0xd4, 0x3e,
  0xf1, 0x5c, 0x93, 0x3c, 0x34, 0xd8, 0x0a, 0x3d, 0xf0, 0x19, 0x21, 0x3c,
  0x57, 0x8f, 0x47, 0x3e, 0x0c, 0xfc, 0x10, 0x3d, 0xfa, 0xdb, 0x3b, 0xbd,
  0x60, 0x88, 0xca, 0xbe, 0xdc, 0xd1, 0x18, 0x3e, 0x48, 0xae, 0x23, 0x3f,
  0xb8, 0x83, 0xa5, 0x3d, 0x48, 0x4d, 0xba, 0x3e, 0xd8, 0x5f, 0xb6, 0xbe,
  0xf3, 0x42, 0x03, 0xbf, 0x1e, 0x25, 0x8a, 0x3d, 0x95, 0x1a, 0x3b, 0xbe,
  0xc0, 0xc7, 0x65, 0x3e, 0x3c, 0xcc, 0xb3, 0xbe, 0x7d, 0xb7, 0x37, 0x3e,
  0xc9, 0x81, 0x36, 0xbf, 0xed, 0xe9, 0x92, 0xbe, 0x46, 0x4b, 0xcb, 0x3e,
  0xdf, 0x7c, 0x88, 0xbe, 0x2a, 0x10, 0x55, 0x3e, 0x6b, 0x85, 0x62, 0xbe,
  0x53, 0x17, 0xe5, 0xbe, 0x17, 0xd6, 0x13, 0xbf, 0x39, 0x4d, 0x12, 0xbe,
  0x24, 0xda, 0xc8, 0xbe, 0xb9, 0x37, 0xeb, 0xbd, 0x4e, 0xb0, 0x5d, 0x3e,
  0xd7, 0xdd, 0x05, 0x3e, 0x01, 0x89, 0x33, 0x3c, 0x4a, 0xba, 0x5a, 0xbf,
  0x0a, 0xc3, 0x7e, 0xbf, 0x1e, 0x78, 0x10, 0xbd, 0x34, 0x44, 0xa4, 0xbf,
  0xe4, 0xc2, 0x7f, 0x3e, 0x5d, 0x3e, 0xc8, 0x3e, 0xb3, 0x02, 0xcd, 0xbe,
  0x6b, 0x2b, 0x11, 0xbe, 0x3d, 0x6a, 0x03, 0x3d, 0x83, 0xb8, 0xdb, 0x3d,
  0xf5, 0xd3, 0xb8, 0x3e, 0x7f, 0x53, 0x68, 0xbe, 0x51, 0xb7, 0x08, 0xbe,
  0xe8, 0x32, 0x90, 0xbe, 0x84, 0x0f, 0xc1, 0x3e, 0x63, 0xf2, 0xac, 0xbd,
  0x64, 0x38, 0xa5, 0x3e, 0x56, 0x97, 0xd7, 0xbe, 0xe7, 0xb2, 0x0a, 0xbf,
  0x97, 0x21, 0xf2, 0x3c, 0xe2, 0x55, 0xd7, 0xbe, 0xd0, 0x2c, 0xc2, 0x3e,
  0x66, 0x52, 0xa8, 0x3d, 0x29, 0x47, 0xfa, 0x3d, 0x07, 0xd3, 0x84, 0xbe,
  0xaa, 0x04, 0xf4, 0xbc, 0xd5, 0x51, 0x00, 0x3f, 0x80, 0xbf, 0x75, 0x3e,
  0x6c, 0xe7, 0x11, 0xbe, 0x3d, 0x90, 0xec, 0x3e, 0x33, 0x6f, 0x11, 0xbf,
  0xde, 0x26, 0x29, 0xbe, 0xb7, 0x53, 0x60, 0x3f, 0x65, 0x82, 0x31, 0xbe,
  0xa5, 0xc2, 0xbd, 0xbd, 0xe1, 0x04, 0x81, 0xbd, 0x45, 0xb2, 0xdf, 0x3e,
  0xed, 0x28, 0xc2, 0xbe, 0x34, 0x6c, 0xed, 0xbd, 0xba, 0x20, 0xc8, 0x3e,
  0x3d, 0x8b, 0xa0, 0x3e, 0x3b, 0xe6, 0x0f, 0xbe, 0xfb, 0x46, 0x89, 0xbe,
  0x4d, 0x2d, 0x80, 0xbe, 0xfe, 0x82, 0x65, 0x3e, 0x88, 0x9c, 0x47, 0x3e,
  0xd3, 0x1f, 0x98, 0x3d, 0x20, 0x4c, 0x9d, 0xbe, 0xfb, 0xe3, 0x63, 0xbe,
  0xf5, 0x4a, 0x05, 0x3f, 0xba, 0x3a, 0xab, 0xbf, 0x0f, 0xee, 0x70, 0xbe,
  0x57, 0x46, 0x2e, 0x3e, 0x27, 0x34, 0xec, 0xbd, 0x4e, 0xd5, 0xc0, 0xbe,
  0x43, 0x1e, 0x01, 0x3f, 0xa4, 0x6d, 0xb3, 0xbe, 0xf3, 0x0b, 0x21, 0x3f,
  0x1d, 0x36, 0xb9, 0x3c, 0x75, 0x17, 0x5b, 0xbe, 0x43, 0xba, 0xbc, 0xbd,
  0x1a, 0xb0, 0xac, 0x3e, 0x71, 0x88, 0xa6, 0xbe, 0x23, 0x65, 0x9b, 0x3e,
  0x09, 0x2f, 0xd0, 0x3b, 0xdb, 0xda, 0x7c, 0x3e, 0xca, 0x72, 0x8a, 0xbf,
  0x6e, 0xae, 0xa6, 0xbf, 0x0e, 0x1d, 0x87, 0xbe, 0x8e, 0x62, 0x66, 0x3e,
  0x9c, 0xbc, 0x4c, 0xbd, 0x0d, 0x5f, 0x72, 0x3e, 0xab, 0xdb, 0xbd, 0x3d,
  0x89, 0x1d, 0xb3, 0x3e, 0x33, 0x86, 0x11, 0xbf, 0x5b, 0xbe, 0x5d, 0xbe,
  0x84, 0x7e, 0xb3, 0x3e, 0xc9, 0x29, 0x91, 0xbe, 0x1b, 0xfb, 0xac, 0xbe,
  0x58, 0xc3, 0xd9, 0xbe, 0x72, 0x31, 0x35, 0x3f, 0x0a, 0xae, 0xae, 0xb8,
  0x69, 0x0a, 0x5a, 0x3e, 0xd0, 0x1d, 0x3d, 0x3e, 0xf6, 0x74, 0x28, 0x3f,
  0xba, 0xc6, 0x8c, 0x3c, 0x3f, 0x2d, 0xe3, 0x3d, 0x67, 0x74, 0x55, 0x3d,
  0x23, 0xe9, 0x6d, 0xbd, 0xa0, 0xf2, 0x83, 0xbd, 0x7e, 0xef, 0xd1, 0xbe,
  0x19, 0xa5, 0xe0, 0xbe, 0x86, 0x55, 0x98, 0x3e, 0x74, 0x19, 0x5a, 0x3c,
  0x71, 0x0a, 0xc7, 0x3d, 0x06, 0x3c, 0x8f, 0xbc, 0x72, 0x99, 0x63, 0x3d,
  0x57, 0x68, 0xe8, 0x3d, 0x5a, 0xec, 0x12, 0xbf, 0xd3, 0x1a, 0x25, 0x3d,
  0x4f, 0xa9, 0x17, 0xbe, 0x5f, 0x6b, 0xea, 0xbc, 0x9d, 0xe1, 0xdb, 0x3e,
  0xea, 0x39, 0xac, 0xbd, 0xf3, 0x1c, 0x86, 0xbd, 0x15, 0x42, 0x3c, 0x3d,
  0x43, 0x46, 0x76, 0x3e, 0xcc, 0x0c, 0x22, 0xbf, 0xe7, 0x97, 0xab, 0x3d,
  0x8f, 0x3b, 0x30, 0x3e, 0x97, 0x08, 0x93, 0xbe, 0xb2, 0xe2, 0x9e, 0x3e,
  0xc2, 0x24, 0x88, 0x3e, 0xae, 0xd0, 0xd0, 0xbe, 0x3c, 0x41, 0x08, 0xbe,
  0x6f, 0xb8, 0xa5, 0xbe, 0x61, 0x1b, 0x4c, 0x3e, 0x1e, 0xd1, 0xce, 0xbe,
  0x0a, 0xd8, 0xdb, 0xbe, 0xab, 0x6c, 0x15, 0x3f, 0x78, 0x30, 0xee, 0x3c,
  0x08, 0xb9, 0x7b, 0xbd, 0x1d, 0xfd, 0x9d, 0xbe, 0xa0, 0x8d, 0xb7, 0xbe,
  0xc7, 0x46, 0xc0, 0x3e, 0x4c, 0x65, 0x68, 0x3e, 0x9c, 0x8e, 0x2f, 0xbe,
  0x13, 0x5e, 0x3e, 0x3e, 0xc1, 0x63, 0x48, 0xbe, 0x68, 0xd0, 0x52, 0xbe,
  0x45, 0x93, 0x6f, 0xbf, 0x6b, 0x44, 0x2a, 0x3c, 0xf8, 0x2f, 0x21, 0x3e,
  0xe6, 0x27, 0x81, 0xbd, 0xd8, 0x73, 0xcd, 0x3e, 0xde, 0x66, 0xe4, 0x3d,
  0xcd, 0xd0, 0x02, 0xbf, 0x4d, 0xf7, 0x49, 0x3e, 0x46, 0x56, 0x6c, 0x3e,
  0xda, 0x15, 0x28, 0x3d, 0x2c, 0x65, 0x34, 0x3f, 0x89, 0x17, 0x17, 0xbd,
  0x35, 0x76, 0xa5, 0x3e, 0xc8, 0x71, 0x15, 0xbe, 0xf2, 0x3d, 0x90, 0xbe,
  0x7f, 0x4c, 0xc5, 0x3e, 0x71, 0x96, 0xd4, 0x3c, 0x8c, 0x40, 0x9b, 0x3e,
  0x11, 0xc6, 0xc4, 0xbd, 0x03, 0x84, 0xc8, 0x3d, 0xa3, 0xcf, 0x8b, 0x3d,
  0x84, 0x61, 0x1c, 0xbe, 0x35, 0x4f, 0xa0, 0xbe, 0xde, 0xda, 0x9f, 0xbc,
  0x52, 0x15, 0x12, 0xbd, 0xf0, 0x28, 0xc8, 0x3d, 0xec, 0xa1, 0x5d, 0xbe,
  0xaf, 0x05, 0xb7, 0x3d, 0x3a, 0xce, 0x1f, 0x3d, 0xcd, 0xd5, 0x8f, 0xbd,
  0x40, 0x7c, 0x9f, 0xbd, 0x8a, 0x06, 0x8b, 0xbe, 0x6d, 0x21, 0xa9, 0xbe,
  0x02, 0xbf, 0x1b, 0xbe, 0x8e, 0xc0, 0xc7, 0x3e, 0x11, 0xa1, 0x4f, 0xbe,
  0xd0, 0x44, 0xd4, 0x3e, 0xe0, 0xc6, 0xd3, 0xbb, 0x69, 0x17, 0x27, 0xbe,
  0x17, 0x10, 0xe5, 0xbe, 0x02, 0xbc, 0xdd, 0x3e, 0xdf, 0xe7, 0xa9, 0x3c,
  0xa2, 0x6a, 0x89, 0xbe, 0xc9, 0x98, 0x83, 0x3e, 0x17, 0x16, 0x2f, 0xbe,
  0x14, 0xd6, 0x01, 0x3e, 0x04, 0xaa, 0x98, 0x3e, 0x23, 0xc9, 0x06, 0x3e,
  0x16, 0x0d, 0xef, 0xbe, 0x89, 0x5c, 0x07, 0xbf, 0xe7, 0x08, 0x4b, 0xbe,
  0xa6, 0xc0, 0xac, 0x3e, 0xc5, 0xad, 0x25, 0xbe, 0xfc, 0xc2, 0x87, 0xbe,
  0x84, 0x02, 0x4a, 0x3e, 0x25, 0xae, 0xcc, 0x3d, 0x11, 0xe8, 0x4c, 0xbe,
  0x55, 0x6e, 0xf7, 0x3e, 0x35, 0x47, 0x0e, 0x3f, 0x32, 0xdf, 0xd3, 0x3d,
  0xe1, 0x61, 0xd8, 0xbe, 0x76, 0x6c, 0xc8, 0x3e, 0xfa, 0xf8, 0x5f, 0x3e,
  0x8d, 0xd7, 0x8e, 0xbc, 0xd6, 0x07, 0xba, 0x3e, 0xe7, 0xe2, 0x76, 0x3d,
  0x07, 0x4a, 0x14, 0x3e, 0x3c, 0xd3, 0x8e, 0xbd, 0x58, 0xfb, 0xb3, 0xbe,
  0x39, 0xb5, 0x1b, 0x3f, 0xf6, 0x5a, 0x9b, 0x3e, 0xb2, 0xa1, 0xaa, 0xbe,
  0x50, 0x4b, 0xc8, 0x3e, 0xbb, 0x4b, 0xe0, 0x3d, 0xa5, 0x0c, 0x10, 0xbf,
  0x17, 0x54, 0x04, 0x3e, 0xd3, 0x5f, 0xe3, 0xbe, 0x10, 0xdf, 0x9d, 0xbe,
  0x1e, 0x7e, 0xa6, 0xbd, 0x20, 0x9d, 0xe3, 0xbd, 0x7d, 0x5e, 0xa4, 0xbe,
  0x59, 0x2f, 0xa7, 0x3e, 0xf6, 0xbc, 0x64, 0x3e, 0xc8, 0x79, 0xf0, 0xbd,
  0xc5, 0xa9, 0x12, 0x3d, 0xe3, 0xf6, 0xd5, 0x3e, 0x58, 0xee, 0x9e, 0x3e,
  0x87, 0x53, 0x2c, 0xbe, 0x9a, 0xe1, 0x24, 0xbf, 0x9f, 0xc8, 0xb4, 0xbe,
  0xbb, 0xc7, 0x81, 0x3d, 0x29, 0x1d, 0x0b, 0xbf, 0xdc, 0xde, 0x69, 0x3e,
  0x71, 0xcd, 0x8f, 0xbe, 0x31, 0xe7, 0x40, 0x3d, 0xb2, 0xad, 0x1d, 0xbd,
  0x4f, 0x10, 0xd8, 0x3e, 0x66, 0x1d, 0xa3, 0x3e, 0xb9, 0xf9, 0xb2, 0x3e,
  0x8f, 0x8e, 0x8b, 0x3e, 0xf6, 0x8a, 0x84, 0xb7, 0xee, 0x7e, 0x54, 0xbf,
  0x75, 0x8a, 0xd7, 0x3e, 0x90, 0x0b, 0x6b, 0xbe, 0xe6, 0xe2, 0x22, 0x3d,
  0xa7, 0x86, 0xde, 0xbe, 0xe5, 0x55, 0x71, 0xbe, 0x9e, 0xbe, 0x9d, 0xbe,
  0xc9, 0xa0, 0x4e, 0x3e, 0x1e, 0x7f, 0x42, 0x3e, 0xf0, 0x01, 0x2e, 0x3f,
  0x2e, 0xcd, 0xb9, 0xbe, 0x7d, 0x65, 0xf4, 0x3e, 0x69, 0xbe, 0x0d, 0xbb,
  0xe6, 0x04, 0x90, 0x3d, 0x76, 0x89, 0xa3, 0x3b, 0x15, 0x8f, 0x74, 0x3e,
  0xa7, 0xa5, 0x28, 0xbd, 0x6f, 0x6f, 0x6c, 0xbe, 0x17, 0xf9, 0xab, 0x3e,
  0x7b, 0x22, 0x6c, 0x3e, 0x7b, 0x56, 0x12, 0xbf, 0xd5, 0xf9, 0x9f, 0xbd,
  0xb0, 0x47, 0x68, 0xbe, 0x71, 0x14, 0x94, 0x3e, 0x48, 0x56, 0xa6, 0xbe,
  0x0b, 0xd5, 0xc1, 0xbd, 0x8b, 0x9d, 0x7a, 0x3e, 0x79, 0x0b, 0x96, 0xbd,
  0x8d, 0xcc, 0x47, 0xba, 0xd2, 0x3a, 0x04, 0x3f, 0x32, 0x85, 0x8a, 0x3d,
  0x2b, 0x7c, 0xb8, 0xbe, 0x11, 0x56, 0xe6, 0x3e, 0x06, 0x3e, 0xcb, 0xbb,
  0x27, 0xfd, 0xc1, 0xbe, 0x6e, 0x8b, 0x4d, 0xbe, 0x7b, 0x9c, 0xa0, 0xbe,
  0xe0, 0xb6, 0x15, 0xbe, 0x68, 0xb7, 0x56, 0x3c, 0xb4, 0xa3, 0xea, 0xbd,
  0xcb, 0xa3, 0x30, 0x3d, 0xa8, 0x22, 0x19, 0x3e, 0x18, 0xd3, 0x83, 0x3e,
  0x75, 0x9d, 0x08, 0xbf, 0x9c, 0xbe, 0xd0, 0xbe, 0xac, 0xca, 0x01, 0x3e,
  0x92, 0xb2, 0xd0, 0x3e, 0x5d, 0x39, 0x6f, 0x3e, 0x45, 0xc1, 0xeb, 0x3e,
  0x8f, 0x3c, 0xa8, 0x3e, 0x8b, 0x9f, 0x88, 0x3e, 0xcd, 0xc5, 0xd6, 0xbe,
  0x2d, 0xc8, 0x4c, 0x3e, 0x48, 0xd5, 0x75, 0x3e, 0x4d, 0x96, 0x4c, 0xbe,
  0x33, 0x61, 0x3d, 0x3e, 0x19, 0x8a, 0xdb, 0xbe, 0xde, 0x4c, 0xb5, 0x3d,
  0x59, 0xd0, 0x92, 0x3e, 0x7c, 0xee, 0x5f, 0xbe, 0x3d, 0x07, 0x38, 0xbd,
  0x04, 0xa2, 0xae, 0x3e, 0xc6, 0xfa, 0x0e, 0xbd, 0x3c, 0xdb, 0xdd, 0xbd,
  0xad, 0x86, 0xe5, 0xba, 0x7c, 0x28, 0xc6, 0xbd, 0xdb, 0xdf, 0xcf, 0x3c,
  0x66, 0x85, 0x35, 0xbe, 0x0a, 0x8a, 0x71, 0xbd, 0x90, 0xa0, 0xca, 0xbd,
  0x9b, 0xf0, 0x02, 0xbf, 0x41, 0x80, 0x0e, 0x3f, 0xc8, 0x6a, 0x8e, 0xbe,
  0x67, 0x37, 0x26, 0x3d, 0x9f, 0x45, 0x9d, 0x3e, 0x65, 0x1a, 0x48, 0xbd,
  0x44, 0x8c, 0xc8, 0xbe, 0xde, 0x60, 0x0e, 0x3f, 0x56, 0x93, 0xf5, 0x3d,
  0x1f, 0x12, 0x8b, 0xbe, 0x73, 0xb6, 0x0b, 0xbf, 0x53, 0x11, 0x28, 0x3e,
  0x6a, 0xe2, 0x15, 0x3e, 0x18, 0x04, 0x8a, 0xbe, 0xfe, 0xa9, 0x98, 0xbe,
  0x8e, 0xcd, 0x10, 0x3f, 0xd5, 0x1a, 0x75, 0xbe, 0x3b, 0xd5, 0xac, 0x3e,
  0xaa, 0xac, 0xe9, 0x3d, 0xc1, 0x5f, 0x05, 0xbf, 0x20, 0xea, 0x0e, 0xbe,
  0x39, 0x14, 0x48, 0xbe, 0x54, 0x4d, 0x9a, 0xbe, 0x2c, 0x2b, 0x8a, 0xbe,
  0xf5, 0x0d, 0xea, 0x3e, 0x60, 0xca, 0x16, 0xbf, 0xf0, 0xea, 0xb9, 0x3e,
  0xf3, 0xba, 0xd9, 0xbc, 0x1c, 0x5f, 0xca, 0x3e, 0x8a, 0xd0, 0x04, 0x3f,
  0x34, 0x34, 0x74, 0x3e, 0xa4, 0x8a, 0x51, 0xbf, 0xa4, 0xd1, 0x96, 0xbd,
  0x59, 0x67, 0x71, 0x3d, 0x53, 0x58, 0x81, 0x3d, 0xa8, 0xd3, 0x8b, 0x3e,
  0xec, 0xda, 0xda, 0xbb, 0x83, 0x99, 0xd5, 0x3e, 0x13, 0x99, 0x41, 0xbe,
  0xa3, 0xbc, 0xb4, 0xbd, 0xcf, 0x20, 0xf5, 0xbd, 0x25, 0x11, 0x34, 0x3e,
  0x86, 0x82, 0xf8, 0x3d, 0x7f, 0x02, 0x22, 0x3c, 0xd4, 0xc3, 0xb1, 0x3e,
  0x32, 0xea, 0x7d, 0x3e, 0xb2, 0x98, 0x34, 0xbe, 0xa0, 0xed, 0xf9, 0x3e,
  0xb0, 0x5b, 0xc2, 0xbd, 0x8d, 0xa4, 0xb1, 0xbd, 0xc3, 0xe0, 0x87, 0xbd,
  0xa7, 0x1a, 0x86, 0x3e, 0x6f, 0x6a, 0x18, 0xbc, 0x4a, 0x24, 0xc3, 0xbe,
  0xf2, 0xd7, 0x2f, 0x3e, 0x6b, 0xfc, 0x33, 0xbe, 0x5d, 0xea, 0xc3, 0xbb,
  0x8f, 0xa3, 0x77, 0x3e, 0x96, 0x3f, 0x9e, 0x3e, 0x4d, 0x0d, 0xb3, 0xbe,
  0x6d, 0x10, 0x0a, 0xbe, 0x4b, 0x86, 0xdc, 0x3e, 0x7d, 0x32, 0xc4, 0xbc,
  0xd0, 0xa7, 0x62, 0xbf, 0x07, 0xc9, 0x8a, 0xbd, 0x2e, 0x70, 0x84, 0xbe,
  0x32, 0xbc, 0x38, 0x3e, 0xcb, 0xe8, 0x98, 0xbd, 0x7b, 0x95, 0x19, 0xbf,
  0xf1, 0x36, 0xdb, 0x3e, 0x21, 0x45, 0x4f, 0xbc, 0xcd, 0x3a, 0x5c, 0x3e,
  0x6b, 0xe0, 0x3c, 0xbd, 0x10, 0xa5, 0x89, 0x3d, 0x24, 0x65, 0xbe, 0xbd,
  0xbc, 0xbf, 0x71, 0x3e, 0x80, 0x3c, 0x00, 0xbe, 0xc7, 0x5c, 0xd4, 0xbb,
  0xaa, 0x10, 0x8a, 0x3e, 0x8d, 0xc6, 0x6b, 0xbe, 0x1b, 0xd4, 0xe8, 0xbe,
  0xdf, 0x1a, 0xaf, 0x3c, 0x19, 0x8d, 0xf7, 0xbd, 0x3e, 0x8a, 0x8b, 0x3d,
  0x3d, 0x34, 0xa0, 0x3e, 0x3e, 0xb3, 0x0e, 0xbf, 0xc8, 0x88, 0x07, 0xbf,
  0x99, 0xd2, 0x86, 0x3e, 0x38, 0xcc, 0xc2, 0xbe, 0x35, 0xbb, 0x2c, 0x3e,
  0x2a, 0x16, 0xbc, 0xbd, 0x55, 0x00, 0xa5, 0x3e, 0xde, 0xa7, 0xef, 0x3d,
  0xef, 0x5e, 0x98, 0x3e, 0x4e, 0x2a, 0xb7, 0xbe, 0x5e, 0x37, 0xc5, 0xbd,
  0x60, 0x82, 0x7d, 0x3e, 0x20, 0x07, 0xb9, 0x3e, 0x9d, 0x02, 0xc8, 0x3d,
  0x8b, 0x77, 0x1e, 0xbe, 0x71, 0x44, 0xee, 0xbd, 0x40, 0xe2, 0x27, 0xbf,
  0x04, 0x0d, 0x21, 0xbf, 0xdf, 0xef, 0xef, 0x3d, 0x53, 0x7c, 0xba, 0x3d,
  0xdf, 0x4c, 0x0f, 0x3f, 0x43, 0x9a, 0xc6, 0x3d, 0xd5, 0xb8, 0x31, 0xbf,
  0x3f, 0x32, 0x8b, 0x3e, 0x04, 0xae, 0xf2, 0x3d, 0x47, 0xd3, 0x0d, 0x3f,
  0x38, 0xa3, 0x05, 0xbc, 0xf0, 0x52, 0x0a, 0xbd, 0x74, 0x04, 0x81, 0xbe,
  0x07, 0x96, 0xd1, 0x3e, 0xff, 0x3c, 0x35, 0xbd, 0x36, 0xb1, 0xd5, 0x3e,
  0x56, 0xd0, 0xe6, 0xbc, 0x67, 0xb9, 0xce, 0x3e, 0x4e, 0xdc, 0xff, 0xff,
  0x04, 0x00, 0x00, 0x00, 0x00, 0x20, 0x00, 0x00, 0xe8, 0xd3, 0xb7, 0x3d,
  0x21, 0x4a, 0x11, 0x3e, 0x0c, 0xa3, 0xe8, 0xbc, 0x5d, 0x9a, 0x8a, 0xbd,
  0x0a, 0xc6, 0xe4, 0xbe, 0xbe, 0xaf, 0xda, 0xbe, 0x50, 0x4a, 0x0d, 0xbe,
  0x1a, 0x51, 0x5c, 0x3e, 0x10, 0x02, 0x44, 0x3c, 0x7f, 0x8d, 0x77, 0xbf,
  0x31, 0xb2, 0xb8, 0x3e, 0x15, 0xf3, 0xc7, 0x3d, 0x4a, 0x18, 0x56, 0xbe,
  0x25, 0x3a, 0x95, 0x3c, 0x64, 0x85, 0x9d, 0x3d, 0x11, 0x36, 0xe4, 0xbd,
  0xa6, 0x3c, 0xfa, 0x3c, 0x31, 0x5e, 0xd6, 0xbe, 0x6b, 0xdd, 0x95, 0xbe,
  0xb8, 0xa4, 0xbe, 0x3e, 0x61, 0x2e, 0x96, 0x3e, 0xc5, 0x77, 0x09, 0x3e,
  0xf3, 0xb7, 0x2d, 0x3e, 0x20, 0x3c, 0x85, 0x3e, 0x7f, 0x71, 0x89, 0x3e,
  0xc1, 0x7c, 0x4d, 0x3e, 0xb6, 0x02, 0xda, 0xbe, 0xf8, 0x95, 0x22, 0x3c,
  0xd7, 0xdc, 0x42, 0xbe, 0xc6, 0x11, 0x3c, 0xbc, 0xb8, 0x26, 0xa4, 0xbe,
  0x9c, 0xff, 0xdd, 0xbd, 0xbf, 0x03, 0x42, 0x3e, 0x47, 0x5a, 0x80, 0x3e,
  0x14, 0xfd, 0xfa, 0xbe, 0x85, 0x03, 0xa6, 0xbe, 0x98, 0xb8, 0x7d, 0x3e,
  0xea, 0x3f, 0xfe, 0x3e, 0x70, 0xd4, 0xf2, 0x3e, 0x14, 0x39, 0xe4, 0x3e,
  0x73, 0x14, 0x2c, 0xbf, 0x05, 0x82, 0xbd, 0xbd, 0xaf, 0x98, 0x4a, 0xbc,
  0x28, 0x6d, 0x23, 0x3e, 0x45, 0x5b, 0x2a, 0x3e, 0x3b, 0x44, 0x2f, 0xbe,
  0x40, 0xc3, 0x91, 0xbd, 0x2c, 0xea, 0x5d, 0xbd, 0x87, 0x00, 0xc4, 0xbd,
  0xa2, 0x9a, 0x93, 0x3d, 0x1e, 0xf6, 0x5c, 0xbe, 0x52, 0x22, 0x0d, 0x3d,
  0xc7, 0x9e, 0x61, 0x3e, 0x00, 0xa1, 0xec, 0x3d, 0x37, 0x6d, 0x99, 0xbe,
  0xca, 0x7d, 0x31, 0xbe, 0x73, 0x6a, 0x95, 0xbd, 0x22, 0x95, 0x58, 0xbc,
  0x43, 0x10, 0x28, 0xbe, 0xe7, 0x66, 0x5c, 0x3e, 0x06, 0xf0, 0x18, 0x3f,
  0x26, 0xc3, 0xa9, 0xbe, 0x06, 0x7d, 0xd0, 0xbc, 0xd4, 0xd8, 0xb1, 0x3e,
  0x49, 0x3e, 0xd7, 0x3e, 0x75, 0x3c, 0xc9, 0xbe, 0xc9, 0xd4, 0x80, 0xbd,
  0x06, 0xdb, 0x40, 0xbe, 0x59, 0xe0, 0xc6, 0xbe, 0x7d, 0x2a, 0x25, 0xbe,
  0x23, 0x88, 0x14, 0x3f, 0x61, 0xe9, 0xa0, 0x3d, 0x7a, 0xb9, 0x6e, 0xbe,
  0xeb, 0x86, 0xab, 0xbe, 0x27, 0xde, 0x93, 0x3e, 0x15, 0xe7, 0xc2, 0x3d,
  0x19, 0xe0, 0xc8, 0x3d, 0x0d, 0xc0, 0xff, 0xbe, 0xa1, 0x3e, 0xc8, 0xbc,
  0x37, 0xfa, 0x83, 0xbe, 0xec, 0x9d, 0xca, 0xbe, 0x19, 0x55, 0x1b, 0x3e,
  0xec, 0xe9, 0xee, 0xbd, 0x48, 0x71, 0x7d, 0x3e, 0x39, 0xa3, 0xa2, 0x3e,
  0xd7, 0xda, 0x72, 0x3e, 0x10, 0x79, 0x10, 0xbf, 0x7e, 0x99, 0xee, 0x3d,
  0xd5, 0x26, 0x8e, 0xbb, 0x3f, 0x48, 0x08, 0x3f, 0x1f, 0x23, 0x92, 0x3c,
  0x2a, 0xf8, 0xaa, 0xbe, 0xed, 0x44, 0xac, 0x3e, 0x5a, 0xa7, 0x7e, 0x3d,
  0x2f, 0x75, 0xaa, 0xbe, 0x8e, 0x25, 0x5c, 0x3e, 0xc6, 0x56, 0x94, 0xbf,
  0x42, 0xb8, 0x1e, 0xbf, 0xe1, 0xd8, 0x7a, 0xbe, 0x52, 0xab, 0x01, 0x3f,
  0x04, 0xf4, 0x98, 0xbe, 0x00, 0xbc, 0x18, 0x3a, 0xdf, 0x40, 0x61, 0xbf,
  0xa6, 0x26, 0x55, 0xbd, 0x2a, 0x05, 0x31, 0xbf, 0x38, 0x0c, 0x21, 0xbe,
  0x5c, 0xee, 0x85, 0x3e, 0xec, 0xcb, 0x41, 0xbf, 0xed, 0xed, 0x0c, 0xbe,
  0x83, 0xf9, 0xb5, 0xbf, 0x59, 0xa0, 0x10, 0x3e, 0xa4, 0xe6, 0x6f, 0x3e,
  0xaa, 0x34, 0xac, 0xbf, 0xf7, 0xc7, 0x9d, 0xbf, 0x65, 0xef, 0x18, 0xbf,
  0x5d, 0x8d, 0x0f, 0x3e, 0xbc, 0xaa, 0xe6, 0xbd, 0xb0, 0xf0, 0x1f, 0x3e,
  0x74, 0x02, 0xdd, 0xbe, 0x22, 0x61, 0x4e, 0x3e, 0x8b, 0x65, 0xe8, 0x3d,
  0x4e, 0xc2, 0x7f, 0xbf, 0x3a, 0x02, 0x0a, 0x3e, 0x28, 0xd1, 0xca, 0x3e,
  0x21, 0x11, 0x17, 0xbf, 0x7b, 0xf1, 0x10, 0xbf, 0x09, 0x56, 0x0d, 0xbe,
  0x56, 0x86, 0xaf, 0x3d, 0x5d, 0x9a, 0x72, 0x3d, 0x28, 0x2b, 0xee, 0xbd,
  0xef, 0x0a, 0x5c, 0x3e, 0x39, 0x0c, 0x61, 0x3e, 0x19, 0xa8, 0x2d, 0xbd,
  0x3d, 0xe3, 0xbb, 0xbe, 0x44, 0x98, 0xd4, 0xbe, 0xc3, 0xc3, 0x11, 0xbe,
  0x6e, 0x4c, 0x03, 0x3f, 0x2f, 0x15, 0x8a, 0x3e, 0x2e, 0xb0, 0x1c, 0xbc,
  0xc8, 0x5f, 0x8b, 0x3e, 0xca, 0x99, 0x16, 0x3e, 0xaf, 0x05, 0x08, 0x3e,
  0x59, 0x50, 0x04, 0x3e, 0xaa, 0x4a, 0x81, 0x3d, 0xcf, 0x01, 0x19, 0xbe,
  0x70, 0x4b, 0xfa, 0xbd, 0xdc, 0x71, 0x01, 0x3f, 0x84, 0x10, 0xc4, 0x3e,
  0x93, 0x3c, 0x36, 0xbd, 0x33, 0x04, 0x95, 0xbd, 0x07, 0xfe, 0x90, 0x3d,
  0x67, 0xce, 0xcd, 0xbe, 0x6f, 0x95, 0x3c, 0x3e, 0x22, 0x08, 0xd1, 0x3c,
  0x84, 0x94, 0xbd, 0x3e, 0xa9, 0x08, 0xb4, 0xbd, 0x9d, 0xa1, 0x05, 0xbf,
  0xc1, 0xc9, 0x8b, 0xbe, 0x0c, 0xbe, 0x82, 0x3d, 0xb7, 0x71, 0x84, 0xbe,
  0x72, 0x0e, 0x68, 0xba, 0x1f, 0x84, 0xfd, 0x3e, 0x32, 0xee, 0xce, 0xbc,
  0xcc, 0x6c, 0x6a, 0xbe, 0x0c, 0x38, 0x49, 0x3e, 0xb4, 0x46, 0x96, 0x3c,
  0x75, 0x73, 0x89, 0xbc, 0xbd, 0xa3, 0xaf, 0xbe, 0x2c, 0x48, 0xcf, 0xbd,
  0x85, 0x14, 0xcd, 0xbd, 0x04, 0xd0, 0x2b, 0x3b, 0x4a, 0x44, 0xf6, 0x3e,
  0xb9, 0xce, 0xc5, 0x3d, 0x12, 0x83, 0x04, 0x3e, 0x8f, 0xdf, 0x2c, 0x3e,
  0x5a, 0x9e, 0xbb, 0xbd, 0x8f, 0xf4, 0x34, 0xbd, 0xd6, 0x24, 0x8d, 0x3e,
  0x4b, 0x21, 0xdc, 0xbd, 0x24, 0xd9, 0x76, 0xbe, 0xcc, 0x56, 0x42, 0x3e,
  0x52, 0xdf, 0xd7, 0xbd, 0xae, 0x96, 0x1a, 0x3f, 0xb5, 0xc7, 0x56, 0xbe,
  0x81, 0x45, 0x76, 0xbe, 0xce, 0x0f, 0x9a, 0x3e, 0xee, 0x84, 0x08, 0xbf,
  0x43, 0x10, 0x6d, 0xbd, 0x83, 0xc2, 0x3d, 0x3c, 0x21, 0x19, 0xb5, 0x3e,
  0x1d, 0x97, 0x9b, 0x3e, 0x69, 0xdb, 0xc8, 0xbe, 0x71, 0x73, 0x4c, 0x3d,
  0x5d, 0x51, 0xec, 0x3b, 0xe7, 0x00, 0xe2, 0xbd, 0x60, 0x84, 0x5b, 0x3d,
  0xbd, 0xef, 0x04, 0x3c, 0x88, 0x3c, 0xcf, 0x3e, 0x47, 0xbf, 0x05, 0x3f,
  0x5a, 0x5d, 0xc3, 0x3e, 0x3b, 0x16, 0x60, 0x3d, 0x39, 0x52, 0x11, 0xbf,
  0x6b, 0x9c, 0x9c, 0xbe, 0x7b, 0x74, 0xf0, 0x3d, 0xcc, 0xb9, 0xc0, 0xbe,
  0x9e, 0x2d, 0x16, 0x3e, 0xc6, 0xdd, 0xc5, 0x3d, 0x9e, 0x6a, 0x06, 0x3e,
  0x38, 0xbf, 0x77, 0xbe, 0x68, 0x81, 0x10, 0xbf, 0xad, 0xc5, 0x77, 0xbe,
  0x41, 0x4c, 0x99, 0x3d, 0xd7, 0xe0, 0xb7, 0x3d, 0xc5, 0x8a, 0x92, 0xbe,
  0x31, 0xa5, 0xf9, 0x3c, 0x1b, 0x75, 0x80, 0x3e, 0xa6, 0xd1, 0xa6, 0xbe,
  0x21, 0x10, 0x9c, 0x3e, 0x7e, 0x1f, 0xb8, 0xbe, 0x3b, 0x8d, 0x1d, 0x3e,
  0xb7, 0x13, 0x99, 0xbe, 0x44, 0xd8, 0x0a, 0xbf, 0xb8, 0x95, 0x8f, 0xbe,
  0x71, 0xd1, 0xb6, 0xbe, 0x17, 0x1f, 0x07, 0xbe, 0xa5, 0x88, 0xd4, 0x3d,
  0xfe, 0x1f, 0xf2, 0xbd, 0x3f, 0x11, 0x84, 0xbb, 0x3a, 0xe1, 0xb3, 0xbe,
  0x15, 0xb7, 0x5c, 0x3e, 0xcf, 0xbf, 0xe0, 0x3e, 0x79, 0x14, 0x13, 0xbe,
  0x9a, 0x93, 0x72, 0xbf, 0x10, 0xd1, 0xee, 0xbe, 0x58, 0x70, 0x1b, 0x3f,
  0x7a, 0x66, 0xab, 0xbd, 0x94, 0xd9, 0xac, 0xbe, 0xa9, 0xd9, 0x81, 0xbe,
  0xbc, 0x06, 0x0a, 0x3e, 0xe0, 0x46, 0x86, 0xbd, 0xac, 0x3f, 0xe1, 0xbe,
  0xb4, 0x64, 0xa9, 0xbe, 0xc5, 0x40, 0x86, 0x3d, 0x8a, 0x40, 0x1e, 0xbe,
  0x07, 0xc9, 0x65, 0x3d, 0x8a, 0x2d, 0x66, 0x3e, 0x09, 0x6d, 0xcb, 0xbe,
  0xaf, 0x79, 0x3b, 0xbe, 0x65, 0xc1, 0xb9, 0x3e, 0xd8, 0x81, 0xae, 0x3d,
  0x3b, 0xaa, 0x3b, 0x3c, 0xe0, 0x17, 0xc7, 0xbe, 0x52, 0x20, 0xbc, 0x3e,
  0xa8, 0xfe, 0x95, 0x3e, 0xae, 0xb0, 0xf5, 0x3b, 0x14, 0x67, 0xeb, 0xbc,
  0xb3, 0x56, 0x27, 0xbf, 0x99, 0x77, 0xd3, 0xbf, 0x5e, 0x09, 0xbd, 0xbe,
  0x41, 0x61, 0x8c, 0x3e, 0x67, 0x0b, 0x07, 0xbe, 0x08, 0xe3, 0x58, 0x3e,
  0xb9, 0xa7, 0x7a, 0xbf, 0x43, 0x6f, 0x74, 0xbf, 0x47, 0xb1, 0x77, 0xbe,
  0x80, 0x86, 0x1f, 0x3c, 0xbd, 0x63, 0x91, 0x3d, 0x69, 0x33, 0x50, 0xbf,
  0x0a, 0x70, 0x22, 0xbe, 0xfd, 0xd7, 0x02, 0xbf, 0x07, 0xaa, 0x8d, 0xbd,
  0x80, 0xf6, 0xdf, 0xbd, 0x0d, 0xd8, 0x1e, 0xbf, 0xb1, 0x35, 0x53, 0xbf,
  0x3b, 0xaf, 0x00, 0xbe, 0xc9, 0xc1, 0x91, 0x3e, 0x7c, 0xc8, 0x9a, 0xbe,
  0xce, 0x8d, 0x71, 0x3d, 0x01, 0x5f, 0x68, 0xbe, 0x30, 0x3c, 0x06, 0x3e,
  0x83, 0xb8, 0xf2, 0xbb, 0x8b, 0x0f, 0xdc, 0xbe, 0x5a, 0xe7, 0xe9, 0x3e,
  0xb3, 0xb3, 0xb7, 0x3e, 0x40, 0x0f, 0x8e, 0x3d, 0x52, 0xd8, 0xd8, 0xbe,
  0x47, 0x11, 0x94, 0xbe, 0xa6, 0x6e, 0xf7, 0xbd, 0x0b, 0xcf, 0x64, 0xbe,
  0x3a, 0xff, 0x93, 0x3e, 0xdf, 0xbc, 0x84, 0xbe, 0x55, 0x68, 0x06, 0xbf,
  0x6d, 0x69, 0x7e, 0xbd, 0xf0, 0x7c, 0x12, 0x3f, 0x17, 0x82, 0xdf, 0x3e,
  0x1e, 0x7b, 0x21, 0x3f, 0xd2, 0xfd, 0x1c, 0xbf, 0x97, 0xff, 0x62, 0xbe,
  0x16, 0x82, 0x2f, 0xbe, 0x30, 0xe3, 0x1c, 0x3d, 0x07, 0x9d, 0xc5, 0x3d,
  0x64, 0xd9, 0x73, 0xbe, 0xf7, 0xc2, 0x5b, 0x3e, 0x5b, 0x36, 0xfa, 0xbd,
  0xfd, 0x7c, 0x2d, 0xbe, 0x11, 0x7b, 0xfe, 0xbe, 0x4e, 0x72, 0x36, 0xbd,
  0x8f, 0x46, 0x9c, 0x3d, 0xc8, 0x51, 0x0e, 0x3f, 0x9c, 0x6a, 0x9b, 0x3d,
  0xbf, 0x91, 0xdc, 0x3d, 0xc5, 0xe6, 0xeb, 0x3d, 0x3f, 0x44, 0xee, 0xbc,
  0x17, 0xb8, 0xdb, 0x3d, 0xbd, 0x00, 0x61, 0x3e, 0x03, 0xdb, 0xd7, 0x3c,
  0x42, 0x2e, 0xb4, 0x3e, 0x27, 0x51, 0x2b, 0xbe, 0xa1, 0x66, 0x6a, 0xbe,
  0x3a, 0x55, 0x2d, 0x3a, 0xbf, 0xc6, 0x18, 0xbe, 0xfd, 0xc4, 0x18, 0xbe,
  0xde, 0x91, 0x17, 0xbe, 0xeb, 0xbb, 0x37, 0xbe, 0xd8, 0xaf, 0xd1, 0x3d,
  0x9c, 0xb3, 0x7b, 0xbe, 0xfb, 0xd8, 0x68, 0xbe, 0x8c, 0xd8, 0xa1, 0x3c,
  0xae, 0x3c, 0x8c, 0xbd, 0x26, 0x20, 0x30, 0xbe, 0xa3, 0x07, 0x38, 0x3e,
  0x21, 0x72, 0x3e, 0xbd, 0x68, 0x80, 0x81, 0xbe, 0x6c, 0xe3, 0x8f, 0xbd,
  0x79, 0xa7, 0x99, 0xbe, 0x80, 0x26, 0xa5, 0xbc, 0x14, 0x78, 0x82, 0x3d,
  0xb7, 0x85, 0xa6, 0x3d, 0x97, 0x60, 0xb7, 0xbc, 0x6d, 0x7d, 0x9b, 0xbb,
  0xa6, 0x32, 0xf2, 0xbc, 0xe9, 0xbe, 0x97, 0x3d, 0xd9, 0x1f, 0x1e, 0xbe,
  0x1c, 0xf0, 0xe2, 0x3d, 0xcd, 0x7e, 0x3a, 0x3e, 0xc5, 0x9d, 0x1d, 0xbe,
  0xc4, 0x8d, 0x42, 0xbe, 0xe9, 0x08, 0x2f, 0xbe, 0x35, 0x5f, 0x5e, 0xbe,
  0x55, 0x1c, 0x18, 0xbe, 0xaf, 0xda, 0xaf, 0x3d, 0x2c, 0x08, 0xb9, 0x3c,
  0x96, 0x01, 0xba, 0x3e, 0x3c, 0xaf, 0x6f, 0x3e, 0x09, 0x9a, 0xe2, 0xbe,
  0x4b, 0xa5, 0x84, 0xbe, 0xae, 0xfe, 0x09, 0xbe, 0xef, 0xc8, 0xa9, 0xbe,
  0x39, 0x91, 0x28, 0x3d, 0xc8, 0x20, 0xd1, 0x3e, 0x45, 0xc4, 0x06, 0xbf,
  0xfd, 0xce, 0x18, 0x3e, 0x76, 0x5c, 0x87, 0x3e, 0x1c, 0x4e, 0x86, 0xbc,
  0xf2, 0x9d, 0xc2, 0x3d, 0xc2, 0x73, 0x87, 0xbd, 0x44, 0x8a, 0x39, 0x3d,
  0xb9, 0xcb, 0x96, 0x3d, 0xac, 0x99, 0xac, 0x3e, 0x84, 0x20, 0x36, 0x3f,
  0x9a, 0xfa, 0xbf, 0xbe, 0xd8, 0x25, 0xc2, 0xbd, 0x5d, 0x14, 0x55, 0x3e,
  0xfa, 0xab, 0xdd, 0x3e, 0xe8, 0xb6, 0x0a, 0xbf, 0x54, 0x10, 0x14, 0x3e,
  0xd2, 0x60, 0x8c, 0xbd, 0xb5, 0x0b, 0xee, 0xbe, 0x81, 0x00, 0x4e, 0x3e,
  0xd1, 0x03, 0x60, 0x3e, 0x7e, 0x3b, 0x04, 0x3f, 0x3f, 0xd4, 0xcd, 0xbd,
  0xb7, 0x4b, 0xae, 0x3c, 0x5d, 0x32, 0xec, 0x3e, 0xf1, 0xce, 0xd6, 0xbd,
  0x2e, 0x74, 0x8f, 0xbd, 0xc8, 0xac, 0x3c, 0xbe, 0x8d, 0x7b, 0x8a, 0x3e,
  0xe3, 0xb3, 0xab, 0x3d, 0x92, 0x77, 0x86, 0xbe, 0x07, 0xdd, 0x12, 0x3e,
  0xad, 0xa5, 0xf9, 0xbd, 0x91, 0x3f, 0x9f, 0x3e, 0x7a, 0x14, 0x07, 0xbe,
  0xf2, 0x9c, 0xbc, 0x3e, 0x27, 0xfa, 0xfc, 0xbd, 0x4e, 0x8d, 0x45, 0x3d,
  0xe2, 0x2d, 0x70, 0x3e, 0x85, 0x76, 0x28, 0x3e, 0x66, 0x60, 0xe2, 0xbd,
  0x9a, 0xa6, 0xe7, 0xbd, 0xb3, 0x74, 0xc7, 0xbe, 0x38, 0xf3, 0xeb, 0x3e,
  0x18, 0xf6, 0x38, 0x3e, 0xfb, 0x6f, 0x15, 0xbf, 0xba, 0xad, 0xa1, 0xbe,
  0xac, 0x0f, 0xa4, 0x3e, 0x28, 0xb4, 0x99, 0xbe, 0x7f, 0xac, 0xcb, 0xbd,
  0x6e, 0x25, 0xd3, 0x3e, 0xa3, 0xfb, 0xf9, 0x3e, 0x37, 0x07, 0x40, 0x3d,
  0xdd, 0xd5, 0xe2, 0xbe, 0xdc, 0x96, 0xb6, 0xbe, 0xaa, 0x93, 0x11, 0x3e,
  0xbe, 0x57, 0x9a, 0xbe, 0x92, 0x3e, 0x01, 0x3f, 0xf7, 0x4a, 0x01, 0x3f,
  0xdd, 0x5f, 0xc7, 0x3d, 0xcd, 0x5e, 0x11, 0xbe, 0x88, 0x32, 0x83, 0x3d,
  0xeb, 0x63, 0xb6, 0xbe, 0x77, 0x28, 0x89, 0xbd, 0xdd, 0xc7, 0x1a, 0xbe,
  0x32, 0xc1, 0xae, 0xbe, 0xd2, 0x8b, 0xc7, 0x3e, 0xdd, 0x9b, 0xfc, 0xbd,
  0xe3, 0xea, 0x61, 0x3d, 0xe3, 0x4e, 0x73, 0xbc, 0xa4, 0xe0, 0x51, 0x3e,
  0x01, 0x3c, 0xfd, 0xbe, 0x80, 0xfb, 0x14, 0xbe, 0x6b, 0x33, 0x3e, 0xbd,
  0x44, 0x03, 0xab, 0x3e, 0x94, 0x20, 0x39, 0xbd, 0x78, 0x72, 0xca, 0x3c,
  0x5b, 0x40, 0x2d, 0x3e, 0x26, 0x26, 0xe0, 0xbe, 0x8e, 0x8e, 0xbd, 0x3e,
  0xf7, 0xc2, 0x38, 0x3e, 0x3c, 0xfd, 0xf5, 0x3c, 0x1f, 0x23, 0x4d, 0xbe,
  0xbe, 0x25, 0x4d, 0xbf, 0xce, 0xf7, 0x04, 0x3e, 0x35, 0x65, 0x79, 0xbf,
  0xae, 0x25, 0xd8, 0xbe, 0xf9, 0x1d, 0x8b, 0xbd, 0xa5, 0x31, 0x1f, 0xbe,
  0x36, 0xb3, 0x7c, 0xbd, 0xc1, 0x0c, 0x82, 0xbe, 0x41, 0x8c, 0x82, 0xba,
  0x18, 0x5c, 0x41, 0xbe, 0xce, 0xe7, 0xb6, 0xbd, 0x20, 0x23, 0xaa, 0x3c,
  0x1d, 0x33, 0x41, 0x3e, 0xf2, 0x4c, 0xc1, 0xbd, 0x3d, 0x9c, 0x1d, 0xbe,
  0x38, 0xc3, 0xc2, 0xbd, 0xfc, 0x25, 0x74, 0xbe, 0x27, 0xc8, 0x1c, 0x3e,
  0x90, 0x7d, 0x47, 0xbe, 0x24, 0xc0, 0x24, 0xbe, 0x84, 0x75, 0x3d, 0xbe,
  0xac, 0xb8, 0x1c, 0xbe, 0x8a, 0x31, 0x30, 0x3e, 0xcb, 0x87, 0xc8, 0x3c,
  0xc2, 0x36, 0x83, 0xbe, 0x92, 0xf8, 0x7b, 0xbe, 0x10, 0xeb, 0xe3, 0x3d,
  0x28, 0x85, 0xb4, 0xbc, 0xdf, 0xa3, 0x5b, 0x3e, 0x0f, 0x16, 0x56, 0xbe,
  0x44, 0xfd, 0x85, 0xbd, 0x6f, 0xdb, 0x67, 0xbd, 0xce, 0xee, 0x9a, 0x3c,
  0x4a, 0xb8, 0x46, 0x3d, 0x50, 0x13, 0xd9, 0xbd, 0x29, 0x61, 0x1a, 0xbe,
  0x81, 0x7a, 0x5b, 0xbe, 0xaf, 0xcf, 0x05, 0xbe, 0x89, 0x18, 0x31, 0xbe,
  0xe7, 0xe4, 0x87, 0x3d, 0xa0, 0x6b, 0x26, 0x3e, 0x0e, 0xad, 0xfc, 0x3d,
  0x3f, 0x44, 0x25, 0x3e, 0xe2, 0x74, 0xb6, 0xbe, 0xc0, 0x57, 0xb6, 0xbe,
  0xf4, 0xa3, 0xb0, 0xbe, 0x61, 0x20, 0xac, 0x3e, 0x6c, 0xae, 0x2e, 0xbd,
  0x2d, 0xb7, 0x68, 0x3e, 0x34, 0xf6, 0x60, 0xbd, 0x12, 0x3b, 0xb7, 0xbe,
  0xd5, 0xbd, 0x3d, 0x3e, 0xb5, 0x7c, 0x47, 0xbd, 0xf5, 0x5f, 0x25, 0x3e,
  0xc1, 0xdf, 0x52, 0x3e, 0xe7, 0x93, 0x63, 0xbe, 0x19, 0x16, 0x2f, 0xbe,
  0xbc, 0x23, 0x51, 0x3e, 0x19, 0x93, 0x36, 0x3e, 0x0e, 0x59, 0xa0, 0x3d,
  0x82, 0xd5, 0x89, 0x3e, 0x2b, 0xfc, 0xc3, 0xbd, 0x1c, 0x51, 0x39, 0xbc,
  0x4c, 0x89, 0x72, 0xbe, 0x59, 0x0a, 0xa4, 0xbe, 0x19, 0x1e, 0x6d, 0x3d,
  0x41, 0x11, 0x00, 0xbf, 0xa9, 0x02, 0x5c, 0x3e, 0x5f, 0x82, 0xb7, 0x3d,
  0x9d, 0x53, 0x7a, 0x3c, 0x0c, 0x57, 0xfc, 0xbe, 0xa3, 0x31, 0x9f, 0x3d,
  0xba, 0x3a, 0x8a, 0xbc, 0x75, 0x37, 0x0d, 0xbe, 0x33, 0x40, 0x4a, 0xbd,
  0xd5, 0x5d, 0xb0, 0xbe, 0x3f, 0xe1, 0x86, 0x3e, 0x0c, 0xbe, 0x84, 0xbe,
  0x15, 0xe3, 0x0a, 0xbe, 0x7e, 0x54, 0xd5, 0xbe, 0x8b, 0xc0, 0x4a, 0x3f,
  0xa2, 0x0c, 0xb3, 0x3d, 0x24, 0x9e, 0x0c, 0xbf, 0xd5, 0xde, 0xe5, 0xbd,
  0x65, 0xe3, 0x80, 0xbd, 0x0f, 0xd0, 0x82, 0xbe, 0xef, 0x98, 0x33, 0xbe,
  0xa4, 0x07, 0xcc, 0xbe, 0x49, 0x13, 0xd6, 0xbe, 0x34, 0x9d, 0x1a, 0x3f,
  0x48, 0xf8, 0x9c, 0x3e, 0xba, 0xed, 0x4d, 0x3e, 0xed, 0x0e, 0x03, 0xbe,
  0xf7, 0x1b, 0x72, 0x3e, 0x8a, 0x9b, 0x31, 0x3f, 0x28, 0x22, 0xad, 0x3e,
  0x2e, 0x8c, 0x72, 0xbe, 0xf0, 0xb6, 0xa1, 0xbe, 0x94, 0xe0, 0x08, 0xbe,
  0x31, 0x0a, 0xd6, 0x3e, 0x30, 0x78, 0x9f, 0xbe, 0xea, 0xb8, 0x37, 0xbd,
  0xb1, 0x74, 0x64, 0xbd, 0x73, 0xff, 0x04, 0x3f, 0x23, 0x71, 0x06, 0x3e,
  0xae, 0x29, 0x1c, 0x3e, 0xe0, 0xde, 0x9a, 0x3e, 0x6d, 0xb5, 0xf8, 0xbe,
  0x0f, 0xa6, 0xd0, 0x3e, 0x12, 0xb0, 0xbf, 0x3d, 0x53, 0x36, 0x26, 0x3e,
  0x8f, 0xf8, 0xa5, 0xbd, 0x98, 0x2a, 0x11, 0xbf, 0x6c, 0x32, 0xd1, 0x3d,
  0x81, 0xe4, 0x02, 0x3e, 0xfa, 0x4c, 0xa7, 0x3e, 0x94, 0xd0, 0xb3, 0xbe,
  0x7a, 0x0c, 0xf4, 0xbd, 0x02, 0xa8, 0xf1, 0x3e, 0xf5, 0x27, 0xcd, 0x3e,
  0x82, 0xa9, 0xc3, 0x3e, 0x71, 0xc0, 0x50, 0xbe, 0x63, 0x03, 0xc5, 0xbd,
  0x57, 0x57, 0x1c, 0x3d, 0x4e, 0x5d, 0x0c, 0x3f, 0x85, 0xb7, 0x44, 0xbd,
  0x94, 0x0d, 0x62, 0xbe, 0x78, 0x4a, 0xcd, 0x3e, 0x3a, 0xd4, 0xc3, 0x3d,
  0xd9, 0x4e, 0x28, 0xbe, 0xe3, 0x5f, 0x41, 0x3b, 0x60, 0xff, 0x88, 0x3d,
  0x6b, 0xfa, 0x8c, 0x3e, 0x27, 0x4b, 0x3b, 0xbf, 0x8b, 0x65, 0x2a, 0x3c,
  0xa7, 0x7c, 0x1e, 0xbe, 0xad, 0xcd, 0x2e, 0x3e, 0x68, 0xb2, 0xdd, 0xbd,
  0xe5, 0xfa, 0xd1, 0xbd, 0x04, 0xde, 0x43, 0xbe, 0x27, 0x65, 0x4b, 0x3e,
  0xec, 0x28, 0x0a, 0xbe, 0x6f, 0xdd, 0x3b, 0xbd, 0xb4, 0x4a, 0x02, 0x3e,
  0xe1, 0xb2, 0xc7, 0xbd, 0x63, 0x3b, 0x80, 0xbe, 0xf3, 0xe8, 0x90, 0xbc,
  0x25, 0xce, 0x66, 0xbe, 0xcf, 0x50, 0x67, 0xbc, 0x5c, 0xed, 0x5b, 0x3e,
  0x05, 0x5f, 0x87, 0xbd, 0x5c, 0xb1, 0xbd, 0xbc, 0x72, 0x57, 0xf3, 0xbd,
  0x09, 0xf5, 0x72, 0xbe, 0x9d, 0x8f, 0x24, 0x3d, 0xb7, 0xae, 0x96, 0xbe,
  0x01, 0xfe, 0x45, 0xbc, 0x19, 0x48, 0x2b, 0x3d, 0xa9, 0x68, 0xd2, 0x3d,
  0x23, 0xcf, 0x0c, 0xbe, 0x08, 0xc8, 0x36, 0xb9, 0x61, 0x8d, 0x69, 0xbe,
  0xc0, 0x5c, 0x1b, 0x3e, 0x36, 0x16, 0xc4, 0xbd, 0x71, 0x72, 0xe3, 0x3c,
  0x56, 0x9f, 0x8b, 0xbe, 0xcc, 0xb3, 0x59, 0xbd, 0xab, 0x45, 0x5e, 0xbf,
  0x0a, 0x44, 0xbe, 0xbe, 0xa4, 0x88, 0x2d, 0xbf, 0xa3, 0x20, 0x26, 0xbf,
  0x1a, 0xf0, 0xe9, 0x3e, 0xce, 0x9e, 0xd7, 0x3e, 0x0f, 0x8b, 0xb5, 0x3e,
  0xc3, 0xc8, 0x9d, 0x3e, 0xf2, 0xf6, 0x9a, 0xbe, 0xd6, 0x9c, 0xac, 0x3d,
  0x59, 0xab, 0xad, 0xba, 0x56, 0x4a, 0xc5, 0xbb, 0xdb, 0x22, 0x0d, 0x3d,
  0x1b, 0x09, 0xb7, 0x3e, 0xc0, 0x2a, 0xe2, 0xbd, 0xd1, 0x3f, 0x5f, 0xbf,
  0x90, 0x71, 0x7c, 0x3e, 0x8f, 0xb5, 0xda, 0x3e, 0x4a, 0x98, 0x2d, 0xbe,
  0xc2, 0x97, 0x30, 0x3d, 0x86, 0x8e, 0x9e, 0x3e, 0xe5, 0xb5, 0x8e, 0xbe,
  0x4c, 0xd6, 0xf0, 0xbd, 0xc7, 0x6a, 0xd0, 0x3d, 0x60, 0x1d, 0xbd, 0x3e,
  0xd3, 0x68, 0x91, 0x3e, 0x36, 0x56, 0xb1, 0x3e, 0xa0, 0xd0, 0xce, 0x3e,
  0xf7, 0x59, 0x95, 0x3e, 0x01, 0x50, 0x83, 0xbe, 0x5f, 0x7f, 0x6f, 0x3e,
  0x2d, 0x71, 0xc0, 0x3d, 0x60, 0xbc, 0xa7, 0xbe, 0xff, 0xb5, 0x6c, 0xbf,
  0xd0, 0x8f, 0x5c, 0xbd, 0xa7, 0x74, 0x98, 0xbe, 0x57, 0xef, 0xd6, 0x3c,
  0x61, 0xbc, 0xb1, 0x3e, 0x29, 0x31, 0x3f, 0x3e, 0x48, 0xbc, 0x81, 0x3e,
  0x18, 0x01, 0x92, 0x3e, 0x9e, 0x73, 0xb2, 0x3e, 0x16, 0x68, 0xcb, 0x3e,
  0xca, 0xc3, 0x8e, 0x3d, 0xd9, 0x5a, 0xb0, 0x3e, 0xd0, 0x94, 0xbf, 0x3d,
  0x03, 0x2d, 0x33, 0x3d, 0xfd, 0x8b, 0xa3, 0xbd, 0x92, 0x85, 0x55, 0x3e,
  0xbe, 0xfb, 0x15, 0x3e, 0xf3, 0xba, 0x3a, 0x3e, 0xba, 0x33, 0x45, 0xbf,
  0x13, 0x23, 0x75, 0x3e, 0xef, 0x0a, 0x53, 0x3e, 0x15, 0xed, 0x7c, 0xbc,
  0xc5, 0xae, 0xbb, 0x3e, 0xfe, 0x6f, 0x19, 0x3f, 0xe1, 0xc6, 0xe3, 0x3e,
  0x8c, 0xd9, 0xb2, 0x3e, 0x00, 0x1b, 0x82, 0x3e, 0x1d, 0x18, 0x14, 0xbe,
  0x8e, 0x4c, 0x47, 0xbd, 0x8f, 0x4e, 0x1b, 0xbe, 0x07, 0x8b, 0x31, 0x3e,
  0x19, 0x46, 0x0c, 0x3d, 0xb7, 0x3b, 0xd3, 0x3e, 0xdf, 0x39, 0x9e, 0xbe,
  0x47, 0x31, 0xc7, 0x3d, 0x74, 0x9b, 0x9e, 0x3d, 0x68, 0x91, 0x75, 0xbe,
  0x7b, 0x15, 0x3a, 0x3e, 0xd9, 0x4c, 0x75, 0x3d, 0x9d, 0xe4, 0x83, 0xbf,
  0xa4, 0x32, 0x06, 0xbe, 0x09, 0xe7, 0xbd, 0xbe, 0x4c, 0xdc, 0x7f, 0xbe,
  0xed, 0x6c, 0xbb, 0xbe, 0xff, 0x7c, 0x34, 0x3e, 0x70, 0x48, 0xf7, 0x3d,
  0x1a, 0xc8, 0x1b, 0x3f, 0x17, 0x2e, 0xc2, 0x3e, 0xa2, 0x85, 0xab, 0xbd,
  0xc3, 0x08, 0xa3, 0x3d, 0x8f, 0x5a, 0xe3, 0xbe, 0x98, 0x87, 0x51, 0xba,
  0xbd, 0xfe, 0x23, 0x3e, 0x2d, 0x79, 0xe5, 0xbc, 0xfd, 0x27, 0x02, 0xbe,
  0x78, 0x2f, 0x94, 0xbe, 0xd6, 0x10, 0x8d, 0xbb, 0xc8, 0x1f, 0x03, 0xbe,
  0x8e, 0x74, 0x91, 0x3f, 0x52, 0xe3, 0xf1, 0x3e, 0x4a, 0xca, 0x8b, 0xbf,
  0x66, 0x38, 0x8c, 0x3e, 0x95, 0x85, 0x56, 0x3e, 0xb1, 0xc4, 0x13, 0x3f,
  0x52, 0xd6, 0xb2, 0x3e, 0x45, 0x5a, 0x10, 0xbe, 0x1a, 0x82, 0x79, 0x3d,
  0x36, 0x97, 0x78, 0xbe, 0x9c, 0x6c, 0x17, 0xbe, 0x31, 0x2f, 0xf6, 0xbc,
  0x59, 0x91, 0x87, 0x3d, 0x07, 0x39, 0x97, 0x3d, 0x14, 0x00, 0xcf, 0xbe,
  0x14, 0x13, 0xa0, 0x3e, 0x23, 0xe5, 0x5e, 0x3d, 0x76, 0x01, 0xa8, 0x3d,
  0xf9, 0xf8, 0x10, 0xbe, 0x91, 0xa5, 0x31, 0x3e, 0xb6, 0x7f, 0xf4, 0x3e,
  0xda, 0xd0, 0x1b, 0x3f, 0x6e, 0xb0, 0x74, 0x3e, 0x31, 0xec, 0x1c, 0xbe,
  0x67, 0x2d, 0x74, 0x3e, 0x36, 0x30, 0x69, 0x3c, 0x55, 0xcc, 0xba, 0x3e,
  0x8f, 0x68, 0x86, 0xbe, 0x3d, 0xd9, 0xdb, 0x3d, 0x73, 0xee, 0xb0, 0x3e,
  0x9b, 0xa8, 0xc7, 0xbe, 0xe3, 0xec, 0x17, 0x3e, 0x96, 0xcc, 0xb3, 0x3e,
  0x80, 0x21, 0x14, 0x3e, 0x41, 0x20, 0x4e, 0x3e, 0x91, 0x72, 0x31, 0xbd,
  0xed, 0x75, 0x8c, 0xbe, 0xe7, 0x1e, 0xec, 0x3e, 0x24, 0xf3, 0x9f, 0x3e,
  0x5e, 0x6e, 0xc6, 0x3d, 0x81, 0x85, 0x4d, 0x3e, 0x94, 0x19, 0x93, 0x3d,
  0x94, 0x98, 0x20, 0xbe, 0xd0, 0x69, 0x0d, 0xbf, 0x00, 0x07, 0x4f, 0xbe,
  0xcc, 0x9a, 0x30, 0xbe, 0xfa, 0xff, 0xbd, 0x3d, 0x53, 0xa7, 0x81, 0x3e,
  0x45, 0xd3, 0x9c, 0x3e, 0x15, 0xc5, 0x14, 0xbe, 0x0f, 0x41, 0x93, 0xbc,
  0x0a, 0x71, 0xe3, 0xbd, 0x66, 0x92, 0x2a, 0x3e, 0x95, 0x7f, 0x00, 0xbe,
  0xc7, 0xff, 0xa0, 0x3d, 0x78, 0x2b, 0x12, 0x3e, 0xf2, 0x19, 0x3e, 0x3d,
  0x7e, 0xbe, 0x2a, 0x3e, 0x70, 0xf7, 0x31, 0xbd, 0xd6, 0x7d, 0x11, 0xbc,
  0x65, 0xaa, 0xbe, 0x3d, 0x68, 0x8a, 0x32, 0x3e, 0xe8, 0xb9, 0x2d, 0xbe,
  0x83, 0xed, 0x19, 0x3e, 0xad, 0xbd, 0x4c, 0xbe, 0x2e, 0x9a, 0xde, 0xbc,
  0x4d, 0x19, 0xa8, 0x3d, 0xff, 0x19, 0xba, 0xbd, 0x62, 0x3f, 0x3a, 0x3d,
  0xe6, 0x15, 0x14, 0x3e, 0xe6, 0x3f, 0x3a, 0x3e, 0x01, 0xd7, 0xcf, 0x3e,
  0x1b, 0x4d, 0x1d, 0xbc, 0xae, 0x85, 0x4d, 0xbf, 0xca, 0x1b, 0xd9, 0xbe,
  0x64, 0xc9, 0x00, 0xbf, 0x59, 0xdd, 0xad, 0x3d, 0xaf, 0x10, 0x06, 0xbe,
  0x6c, 0x6a, 0x2d, 0x3e, 0xe7, 0x0b, 0xf2, 0xbd, 0x6f, 0x38, 0xa4, 0xbe,
  0x84, 0x45, 0xb8, 0x3e, 0xeb, 0x4a, 0x14, 0x3c, 0xf4, 0xbe, 0xc1, 0xbd,
  0x67, 0x8d, 0x08, 0xbb, 0xf5, 0xca, 0xbc, 0xbe, 0xb1, 0x26, 0x6c, 0xbd,
  0xdb, 0x84, 0x3c, 0x3e, 0xbc, 0x61, 0x32, 0x3e, 0x0b, 0xea, 0xc4, 0x3d,
  0x73, 0x25, 0x40, 0x3e, 0x3a, 0xba, 0xb7, 0xbd, 0xbc, 0xe2, 0x9c, 0xbd,
  0x16, 0xf3, 0x24, 0x3e, 0xce, 0xb6, 0xce, 0xbe, 0x78, 0xc8, 0xc0, 0x3d,
  0x93, 0xc9, 0xc8, 0xbe, 0xc3, 0xb6, 0xcf, 0xbc, 0x23, 0xf7, 0x37, 0x3e,
  0x95, 0x72, 0x57, 0xbe, 0xde, 0xe9, 0xc3, 0xbd, 0x09, 0xab, 0x1f, 0xbe,
  0x0e, 0xa2, 0x78, 0xbe, 0xd9, 0x29, 0x9a, 0xbd, 0x49, 0xee, 0xe8, 0xbd,
  0x47, 0xcf, 0x47, 0x3e, 0xef, 0x8f, 0x2e, 0x3c, 0xb8, 0xcb, 0x86, 0x3c,
  0x2b, 0xe7, 0x81, 0xbe, 0xcf, 0x0b, 0x74, 0xbd, 0xef, 0xa5, 0xe6, 0xbb,
  0xb7, 0x2c, 0xcd, 0x3c, 0xd8, 0x7b, 0x3b, 0xbd, 0x7f, 0xa2, 0xdd, 0x3d,
  0x62, 0xb7, 0x39, 0xbe, 0x48, 0xc6, 0x76, 0xbd, 0xab, 0x25, 0x67, 0x3d,
  0xb9, 0xc0, 0x42, 0x3e, 0x04, 0xd7, 0x79, 0xbe, 0x80, 0x6b, 0xc3, 0xbc,
  0x41, 0x33, 0x85, 0xbe, 0x78, 0x20, 0xec, 0xbd, 0xc8, 0x01, 0xb5, 0xbb,
  0x20, 0xa2, 0x44, 0xbe, 0xf0, 0x71, 0x6b, 0xbd, 0xfe, 0xb3, 0x70, 0x3d,
  0x28, 0x5c, 0x8b, 0xbd, 0x2c, 0x08, 0x65, 0xbe, 0x98, 0xa3, 0xe4, 0x3d,
  0xe8, 0xc4, 0x85, 0xbd, 0x1a, 0xfe, 0x10, 0xbd, 0xb1, 0xd6, 0x98, 0x3d,
  0xf8, 0xb6, 0xc6, 0x3e, 0x12, 0x96, 0x9c, 0x3e, 0xee, 0x51, 0xbd, 0x3e,
  0xee, 0xd5, 0xd2, 0x3e, 0xa6, 0xe3, 0x8b, 0x3e, 0x0d, 0x23, 0xd2, 0xbe,
  0xd1, 0x30, 0x20, 0xbe, 0x7a, 0xa0, 0x9a, 0xbf, 0x0a, 0x49, 0x7b, 0xbe,
  0xf2, 0xaa, 0x3e, 0xbf, 0x52, 0xc5, 0xad, 0x3e, 0x49, 0xb0, 0x6d, 0xbe,
  0xed, 0x8a, 0x75, 0xbe, 0xad, 0xb6, 0x90, 0xbe, 0xb7, 0x8c, 0xad, 0xbd,
  0xd0, 0x21, 0x85, 0x3d, 0xa3, 0x7d, 0x25, 0xbe, 0x3d, 0xcc, 0xfe, 0xbe,
  0xb4, 0x14, 0x02, 0x3f, 0xfd, 0x8f, 0x82, 0x3e, 0x34, 0x5f, 0x19, 0x3e,
  0x69, 0x22, 0xd7, 0x3d, 0x53, 0xfd, 0x61, 0x3e, 0x64, 0x95, 0x25, 0xbd,
  0x82, 0x56, 0x7c, 0xbe, 0x84, 0x74, 0xbb, 0xbe, 0x30, 0x78, 0xc9, 0x3d,
  0x4a, 0x23, 0x60, 0xbe, 0x01, 0x8a, 0xc0, 0xbe, 0x23, 0x82, 0x95, 0xbd,
  0x09, 0xec, 0x64, 0xbc, 0x4d, 0x0f, 0x0c, 0x3e, 0x28, 0xdd, 0x86, 0xbe,
  0x84, 0x71, 0x00, 0x3d, 0x4a, 0xe5, 0x04, 0xbe, 0x62, 0xd1, 0x82, 0x3e,
  0x79, 0x0a, 0xa3, 0xbd, 0xb5, 0xff, 0x71, 0xbe, 0xa0, 0xa5, 0xa9, 0x3d,
  0x9c, 0xd5, 0xa9, 0xbe, 0xfd, 0xe5, 0xe0, 0x3e, 0xad, 0x3a, 0x6e, 0x3e,
  0x3f, 0xfe, 0x02, 0x3d, 0x42, 0x54, 0x26, 0x3e, 0x8d, 0x3b, 0x3a, 0xbd,
  0x1a, 0x6c, 0x52, 0x3e, 0xa3, 0x9f, 0x6c, 0x3e, 0x44, 0xf8, 0x0a, 0xbe,
  0xdc, 0x77, 0x5f, 0xbe, 0x53, 0x3a, 0x95, 0xbe, 0x93, 0x0a, 0x25, 0x3d,
  0x26, 0x09, 0x8a, 0x3d, 0x52, 0x10, 0x62, 0xbe, 0x61, 0x78, 0x65, 0x3e,
  0x64, 0xce, 0xa4, 0xb9, 0x3a, 0x1f, 0xb7, 0xbe, 0xaf, 0x77, 0x25, 0x3e,
  0xc9, 0x04, 0x47, 0x3c, 0x6f, 0xf6, 0xda, 0x3d, 0x8d, 0x5d, 0x97, 0x3e,
  0xff, 0x61, 0xa6, 0x3d, 0x72, 0x7f, 0x33, 0x3d, 0xe1, 0xe9, 0x98, 0x3d,
  0x36, 0x66, 0x5a, 0xbe, 0x62, 0x4c, 0x71, 0xbe, 0x5d, 0x9a, 0x6e, 0x3e,
  0xf5, 0x39, 0x86, 0xbd, 0x78, 0xfa, 0xdf, 0xbd, 0xa9, 0xf3, 0x20, 0x3e,
  0xcd, 0x33, 0x97, 0x3e, 0xd1, 0x60, 0x47, 0x3e, 0x30, 0x95, 0x9b, 0xbd,
  0xa3, 0xd5, 0x28, 0xbe, 0x90, 0xc9, 0xd2, 0x3d, 0xf4, 0xc1, 0x2b, 0x3e,
  0xd5, 0x54, 0x76, 0x3d, 0x2a, 0x9a, 0x77, 0xbe, 0x02, 0x7c, 0x64, 0x3e,
  0x04, 0x7c, 0x5b, 0xbe, 0x51, 0xa7, 0x5b, 0x3e, 0x63, 0x2c, 0x9f, 0x3e,
  0x5d, 0xdd, 0x02, 0xbf, 0xf4, 0xbb, 0x66, 0xbe, 0xeb, 0x25, 0x2c, 0xbe,
  0xcd, 0x26, 0xdd, 0x3e, 0xd2, 0xa7, 0x14, 0x3d, 0x52, 0x4e, 0x06, 0x3e,
  0x9f, 0x40, 0xc2, 0xbe, 0x7c, 0x38, 0x78, 0xbe, 0x0b, 0x97, 0xcd, 0x3e,
  0xe3, 0x21, 0x85, 0xbe, 0x70, 0x4e, 0x68, 0x3e, 0xab, 0xde, 0x6a, 0x3e,
  0xac, 0x3f, 0xc5, 0xbd, 0xe2, 0xf6, 0xd6, 0x3e, 0xea, 0xa4, 0x53, 0xbf,
  0xfc, 0x49, 0x8d, 0xbd, 0xd0, 0xe0, 0x28, 0x3e, 0xcf, 0x51, 0x14, 0xbe,
  0x64, 0xdf, 0x33, 0x3e, 0x23, 0x01, 0x86, 0x3d, 0x38, 0xb3, 0xfa, 0x3d,
  0xb3, 0x9a, 0x1f, 0x3d, 0xdc, 0xa7, 0xdc, 0x3e, 0x7c, 0xa2, 0xb2, 0xbe,
  0x5e, 0xae, 0x3b, 0xbe, 0x54, 0x46, 0x1b, 0xbf, 0xc8, 0xea, 0xb1, 0xbd,
  0xa9, 0x80, 0x42, 0x3d, 0xd7, 0x0c, 0x19, 0xbe, 0x2b, 0x8a, 0xe4, 0xbd,
  0xc5, 0x07, 0x09, 0xbc, 0x9f, 0x7d, 0xae, 0x3e, 0xa2, 0x93, 0xa1, 0x3e,
  0xdc, 0x3d, 0x7e, 0xbe, 0x4e, 0x03, 0x57, 0xbf, 0x91, 0xae, 0xac, 0x3e,
  0x3b, 0x45, 0x0d, 0xbf, 0x72, 0x84, 0x12, 0xbe, 0xbf, 0x8a, 0x81, 0xbc,
  0x23, 0xbb, 0x5a, 0xbf, 0xa6, 0x88, 0x9b, 0xbd, 0x22, 0x3b, 0xbe, 0xbe,
  0x8b, 0xfe, 0x5f, 0x3d, 0xb1, 0x59, 0x16, 0x3e, 0x4c, 0x51, 0x35, 0xbe,
  0x17, 0x0e, 0x27, 0x3e, 0x01, 0xcc, 0x9e, 0x3e, 0x46, 0x98, 0x12, 0xbe,
  0xff, 0xdd, 0x5f, 0xbe, 0x1f, 0xd1, 0x6f, 0x3e, 0xa6, 0x52, 0xa1, 0x3c,
  0x99, 0x69, 0xd5, 0xbe, 0xe2, 0xbf, 0x2c, 0x3e, 0xa7, 0xad, 0xbb, 0x3c,
  0xc4, 0x9c, 0x06, 0x3e, 0xcf, 0xb6, 0x5c, 0xbe, 0xa9, 0x1c, 0x31, 0xbe,
  0x6c, 0xc5, 0x0e, 0x3f, 0x38, 0x14, 0x2f, 0xbd, 0x5d, 0xf1, 0x98, 0xbe,
  0xa2, 0x85, 0x86, 0xbe, 0xb9, 0xb2, 0x5b, 0xbd, 0x54, 0x67, 0x58, 0xbe,
  0xab, 0x2d, 0xae, 0xbe, 0x36, 0x2e, 0x65, 0xbe, 0x95, 0xad, 0x93, 0xbe,
  0xdd, 0x6e, 0xc6, 0x3e, 0x5d, 0x97, 0x97, 0x3e, 0x6e, 0x79, 0x73, 0x3e,
  0xfd, 0xa0, 0xd4, 0xbd, 0x4b, 0x33, 0x88, 0x3e, 0x01, 0x0d, 0xaf, 0x3d,
  0xde, 0x67, 0xfe, 0xbc, 0xe1, 0x51, 0x6b, 0xbe, 0xcc, 0x67, 0x36, 0xbe,
  0x72, 0x34, 0xcb, 0xbe, 0x51, 0xcd, 0xd0, 0x3e, 0x8e, 0x96, 0x51, 0xbe,
  0x30, 0x00, 0xb6, 0xbd, 0x97, 0x87, 0xe6, 0xbe, 0xed, 0xa4, 0xfe, 0x3d,
  0x2e, 0xd1, 0xc4, 0xbe, 0x6c, 0xac, 0x07, 0x3e, 0xba, 0x0d, 0xb9, 0x3d,
  0x8e, 0xbc, 0x57, 0xbe, 0x17, 0x27, 0x9a, 0x3e, 0x16, 0xec, 0x12, 0x3f,
  0x2b, 0x5f, 0x26, 0xbf, 0xee, 0xb9, 0x2c, 0x3e, 0xfb, 0x74, 0xc5, 0x3e,
  0x06, 0xb5, 0x24, 0xbd, 0x67, 0x45, 0x1d, 0x3e, 0x71, 0xa4, 0xe6, 0x3d,
  0xb7, 0x2f, 0xc5, 0xbe, 0x31, 0x18, 0x4f, 0xbe, 0xe7, 0x87, 0x90, 0x3e,
  0x94, 0x44, 0x30, 0xbf, 0x21, 0xde, 0x36, 0x3e, 0x86, 0x20, 0x8e, 0xbe,
  0x89, 0x80, 0xcb, 0x3e, 0x73, 0xf9, 0x88, 0x3a, 0xe8, 0xac, 0x62, 0x3e,
  0x9f, 0xfc, 0xeb, 0xbe, 0xa2, 0xd8, 0xb6, 0xbe, 0x3c, 0xc8, 0xab, 0x3e,
  0xdd, 0x72, 0xae, 0x3d, 0x52, 0xd0, 0x03, 0x3e, 0x4a, 0x77, 0x37, 0xbe,
  0xc2, 0x83, 0xa0, 0xbd, 0x90, 0xb3, 0x65, 0xbb, 0x6f, 0x1a, 0x7d, 0xbf,
  0x31, 0xa3, 0x3d, 0xbf, 0x25, 0x8b, 0x41, 0xbf, 0x79, 0xac, 0x5f, 0x3d,
  0xd7, 0xcc, 0x02, 0x3f, 0x83, 0xc1, 0x24, 0xbd, 0x3a, 0x77, 0xa5, 0x3c,
  0x6f, 0xa1, 0x58, 0xbf, 0xdc, 0x9d, 0x6a, 0xbf, 0x26, 0x14, 0x9d, 0xbe,
  0x93, 0x7d, 0xa6, 0xbe, 0x06, 0xea, 0x4c, 0x3e, 0x25, 0xd4, 0xe0, 0xbe,
  0x22, 0x98, 0x2d, 0xbe, 0x72, 0x8f, 0xc2, 0xbe, 0xff, 0x2a, 0x0a, 0xbc,
  0x00, 0xa4, 0xed, 0x3c, 0x85, 0x5b, 0x75, 0xbf, 0x23, 0x7e, 0x66, 0xbf,
  0x84, 0x63, 0x4f, 0xbe, 0x50, 0x79, 0x40, 0x3e, 0xcf, 0xa2, 0xf3, 0xbe,
  0xed, 0x3d, 0xf3, 0x3d, 0x60, 0xa1, 0xeb, 0xbc, 0x7f, 0xa9, 0xf4, 0xbd,
  0x09, 0x77, 0xf3, 0x3d, 0x74, 0xdb, 0xae, 0xbe, 0xaf, 0x27, 0x51, 0x3e,
  0x26, 0x8a, 0xb0, 0x3d, 0x01, 0xee, 0x64, 0xbe, 0x6d, 0x4c, 0x22, 0xbf,
  0x65, 0x97, 0xbd, 0xbd, 0xdc, 0x94, 0x1b, 0x3e, 0xf6, 0x14, 0x82, 0x3e,
  0xc0, 0xb5, 0x4f, 0xbe, 0xad, 0xe2, 0x15, 0x3d, 0xf3, 0xbf, 0x39, 0xbe,
  0x43, 0x5f, 0xae, 0xbe, 0x22, 0x01, 0xb0, 0x3d, 0x93, 0xc6, 0x13, 0x3e,
  0x87, 0xe8, 0x35, 0x3f, 0xc0, 0x79, 0x13, 0xbe, 0xc9, 0x32, 0x8c, 0x3e,
  0x7e, 0xff, 0x77, 0xbe, 0x2c, 0x0b, 0x1b, 0x3e, 0x2e, 0x1f, 0x92, 0xbd,
  0x63, 0x69, 0x38, 0x3e, 0x83, 0x90, 0x33, 0x3e, 0x19, 0x04, 0x50, 0xbe,
  0x39, 0x6a, 0x82, 0xbe, 0x11, 0x4d, 0xa5, 0x3e, 0x23, 0xc7, 0x0c, 0x3e,
  0x80, 0x56, 0x03, 0xbe, 0x62, 0x15, 0x95, 0x3d, 0x42, 0x32, 0xb7, 0xbd,
  0x4a, 0x8e, 0x86, 0xbe, 0xda, 0x9c, 0x4c, 0x3e, 0xe9, 0x61, 0x15, 0xbd,
  0x48, 0x49, 0x29, 0xbf, 0x92, 0x27, 0x04, 0x3f, 0xe2, 0x4f, 0x55, 0x3e,
  0xe0, 0x10, 0xb9, 0x3e, 0xeb, 0x03, 0x4f, 0x3d, 0x7d, 0x0b, 0x80, 0xbe,
  0x40, 0xb0, 0xdc, 0x3d, 0xba, 0x4a, 0xf2, 0x3d, 0xc3, 0x5f, 0xfa, 0xbe,
  0xca, 0xf9, 0x06, 0xbd, 0x6e, 0x17, 0xa2, 0xbe, 0x2c, 0xf4, 0x77, 0x3d,
  0x74, 0x85, 0x75, 0x3e, 0x3a, 0x4b, 0x17, 0x3f, 0x23, 0xff, 0xee, 0x3e,
  0x21, 0xe8, 0x0b, 0xbe, 0x41, 0x99, 0xcd, 0xbe, 0x91, 0xdc, 0x99, 0x3e,
  0x49, 0x2b, 0x76, 0x3c, 0x67, 0x2b, 0xdd, 0x3d, 0x7d, 0x74, 0x16, 0xbe,
  0xd0, 0xb2, 0x99, 0x3e, 0xfa, 0xe4, 0xba, 0x3b, 0x34, 0x67, 0x05, 0xbf,
  0x48, 0x3d, 0x89, 0x3e, 0x25, 0xe0, 0xec, 0x3d, 0x39, 0x81, 0x0f, 0x3d,
  0xde, 0x50, 0xf3, 0xbd, 0xdd, 0x5c, 0x3b, 0x3e, 0x33, 0x85, 0x05, 0xbf,
  0xa1, 0x4a, 0x3e, 0x3d, 0xa5, 0x42, 0x3f, 0x3e, 0x40, 0xfa, 0x67, 0x3e,
  0xfc, 0xef, 0x51, 0x3f, 0x5a, 0x17, 0x37, 0x3e, 0x0f, 0xe5, 0xe3, 0x3e,
  0x63, 0x46, 0x7b, 0x3d, 0x23, 0xed, 0x82, 0xbe, 0x55, 0x7b, 0xee, 0x3d,
  0x1d, 0xe2, 0xbd, 0x3e, 0x84, 0xec, 0xb4, 0x3d, 0xff, 0x51, 0xeb, 0x3e,
  0x73, 0x8f, 0xa4, 0x3e, 0x9f, 0x86, 0xb8, 0x3e, 0xde, 0xa3, 0xd1, 0xbe,
  0x17, 0x76, 0x91, 0xbe, 0x21, 0x98, 0x95, 0xbf, 0xff, 0x1c, 0x50, 0xbe,
  0xc1, 0x85, 0x1c, 0xbf, 0x97, 0xf1, 0x9e, 0x3e, 0xcb, 0xf7, 0x1d, 0xbe,
  0xf4, 0x1a, 0x05, 0x3e, 0xeb, 0x71, 0xdb, 0xbe, 0xfd, 0xe0, 0x7d, 0xbd,
  0x0f, 0xf7, 0x21, 0x3e, 0xc7, 0x5d, 0xb2, 0x3b, 0xeb, 0x1d, 0xf5, 0xbe,
  0xff, 0xb7, 0xd3, 0x3e, 0x8b, 0x1a, 0xd8, 0x3e, 0x12, 0x25, 0x98, 0x3d,
  0x8a, 0xae, 0x6b, 0xbd, 0x30, 0xee, 0xa0, 0x3e, 0xf1, 0x74, 0x2d, 0x3e,
  0x45, 0xf5, 0x0a, 0x3e, 0x78, 0x0b, 0xf5, 0xbe, 0x48, 0xbb, 0x69, 0x3e,
  0x1d, 0x5a, 0x89, 0xbe, 0xf9, 0x87, 0xe2, 0xbe, 0x4f, 0x7a, 0xf8, 0x3b,
  0x07, 0x32, 0x58, 0xbc, 0xfe, 0x03, 0x54, 0xbe, 0x32, 0xc8, 0x0e, 0xbe,
  0x10, 0xb9, 0x1e, 0xbd, 0x31, 0x3b, 0x97, 0x3e, 0xc4, 0xdc, 0x1a, 0xbe,
  0x2a, 0x83, 0x8c, 0xbe, 0xe2, 0xc8, 0x79, 0x3d, 0x46, 0x77, 0x41, 0xbe,
  0x6e, 0xb6, 0x77, 0x3e, 0xa8, 0x8a, 0x26, 0xbe, 0x7d, 0xfb, 0x28, 0xbe,
  0x61, 0x84, 0x74, 0x3f, 0x65, 0x82, 0x32, 0x3e, 0x89, 0x6c, 0x67, 0xbe,
  0xb4, 0x74, 0xf0, 0xbe, 0xe8, 0xca, 0x31, 0x3d, 0x3d, 0x22, 0x56, 0x3e,
  0x1e, 0x1e, 0x8d, 0xbe, 0x97, 0xc6, 0x28, 0x3d, 0x6d, 0xc6, 0x0b, 0xbe,
  0xea, 0x4f, 0x0e, 0x3f, 0x01, 0xf4, 0xd1, 0x3e, 0x91, 0xd9, 0x9e, 0xbe,
  0xc3, 0x7e, 0xa5, 0xbc, 0x73, 0x02, 0xfa, 0x3e, 0x4f, 0xa8, 0x0b, 0x3f,
  0xae, 0x17, 0x37, 0xbe, 0x27, 0x2c, 0x41, 0xbe, 0x4f, 0x47, 0x10, 0xbe,
  0x16, 0xa2, 0xbc, 0x3e, 0xc0, 0x0a, 0x1e, 0x3e, 0x26, 0x1a, 0x67, 0xbe,
  0xec, 0xaa, 0xa5, 0xbe, 0xdc, 0x2b, 0xc9, 0x3c, 0xa5, 0xd1, 0x04, 0xbf,
  0xd0, 0x51, 0xe1, 0xbe, 0x69, 0x3f, 0xfc, 0xbd, 0x1e, 0xe0, 0x20, 0xbf,
  0x77, 0xf4, 0x2c, 0x3f, 0x3b, 0x5b, 0x60, 0x3f, 0x8d, 0x2b, 0xc8, 0x3d,
  0x03, 0xc4, 0x5c, 0xbd, 0xa0, 0x03, 0x9f, 0xbe, 0xb8, 0x80, 0xdf, 0xbe,
  0x1a, 0x72, 0xa9, 0x3e, 0x99, 0x2e, 0x9d, 0xbd, 0x1f, 0x18, 0xe7, 0x3e,
  0x2f, 0xbb, 0x7e, 0xbd, 0x5b, 0xdb, 0xd3, 0x3d, 0xdb, 0xfa, 0x78, 0xbf,
  0x69, 0x29, 0x1d, 0xbf, 0x9b, 0x24, 0x06, 0x3f, 0xb0, 0x54, 0x0c, 0x3e,
  0xfd, 0x6b, 0x79, 0x3d, 0x9d, 0x85, 0x18, 0x3d, 0xef, 0x87, 0xc3, 0xbe,
  0x5a, 0x5e, 0x0a, 0x3e, 0xf6, 0x0f, 0x3a, 0xbd, 0x06, 0xdf, 0x52, 0x3f,
  0xb8, 0xb4, 0xdb, 0xbe, 0x32, 0x0e, 0xc0, 0x3d, 0x67, 0x3d, 0x80, 0x3e,
  0xc3, 0xa9, 0x70, 0xbe, 0x56, 0x3f, 0xae, 0xbe, 0x89, 0xbc, 0x12, 0xbf,
  0x04, 0x4b, 0x9a, 0x3e, 0x20, 0x7f, 0x05, 0xbf, 0x46, 0xd1, 0xe6, 0xbd,
  0xa0, 0x60, 0x46, 0xbe, 0x52, 0x98, 0x19, 0xbf, 0xd9, 0xf3, 0x11, 0x3f,
  0x5e, 0xef, 0x06, 0x3f, 0xa6, 0x7a, 0x38, 0x3e, 0xe8, 0xc1, 0x27, 0x3d,
  0xa5, 0x82, 0x4a, 0xbf, 0x7a, 0xff, 0x5c, 0x3e, 0x52, 0x43, 0xad, 0xbd,
  0xc0, 0xff, 0x10, 0x3c, 0x64, 0x0a, 0x13, 0xbe, 0xf3, 0xe5, 0xef, 0x3d,
  0xb4, 0x2b, 0x83, 0xbd, 0x9e, 0xd5, 0xd3, 0xbe, 0x79, 0xdf, 0xb1, 0x3e,
  0xe9, 0x27, 0x15, 0xbe, 0xfc, 0xa5, 0x13, 0xbe, 0xe9, 0x4e, 0xdb, 0xbd,
  0x08, 0x5b, 0xb8, 0xbd, 0x69, 0xf2, 0x8f, 0xbe, 0x5a, 0x13, 0xa7, 0xbd,
  0x09, 0xc2, 0xaa, 0x3e, 0x50, 0xea, 0xe9, 0x3e, 0xfb, 0xd3, 0x5c, 0x3e,
  0x5b, 0x3c, 0x01, 0x3e, 0x90, 0x68, 0xf3, 0x3e, 0x40, 0xcd, 0x3b, 0x3e,
  0xeb, 0x1f, 0x15, 0xbf, 0xfb, 0xbb, 0x46, 0x3e, 0xcc, 0xd7, 0x57, 0xbf,
  0xf4, 0x99, 0x35, 0x3f, 0x79, 0xa0, 0xf6, 0xbe, 0x08, 0x59, 0x48, 0xbd,
  0xb9, 0x56, 0xf0, 0xbd, 0xc9, 0xe6, 0x4d, 0x3e, 0x29, 0x96, 0x08, 0x3f,
  0x59, 0xa5, 0x16, 0xbe, 0x7a, 0xa2, 0xa2, 0xbe, 0xe4, 0xe0, 0x2f, 0xbe,
  0x7c, 0xef, 0x45, 0x3c, 0xd5, 0x71, 0xa2, 0x3e, 0x86, 0x0a, 0x99, 0x3d,
  0x9c, 0xf2, 0x99, 0x3e, 0x81, 0xe5, 0x6a, 0xbe, 0xda, 0xef, 0x09, 0x3e,
  0x10, 0x13, 0x5e, 0xbe, 0xe9, 0x76, 0x88, 0xbe, 0x4a, 0x98, 0xc3, 0xbd,
  0x60, 0x4f, 0xb5, 0x3d, 0x6f, 0xf7, 0x39, 0x3e, 0x7f, 0xce, 0xa3, 0xbe,
  0x79, 0xdf, 0x14, 0x3e, 0x2b, 0x2c, 0x46, 0xbe, 0xc2, 0xf6, 0x5f, 0xbe,
  0x31, 0x26, 0xca, 0x3e, 0xf9, 0x99, 0x32, 0xbe, 0x96, 0x00, 0xe9, 0xbc,
  0x0a, 0x72, 0x50, 0xbe, 0x57, 0xc4, 0xa4, 0xbe, 0x2c, 0xa0, 0x62, 0x3e,
  0xe3, 0xbe, 0x99, 0xbf, 0x51, 0x91, 0x2b, 0xbe, 0x58, 0xd5, 0xe3, 0x3d,
  0x38, 0xd0, 0x6b, 0x3c, 0xc7, 0xfc, 0x92, 0xbd, 0x26, 0xb0, 0xb9, 0xbe,
  0xe2, 0xdc, 0xed, 0xbe, 0xb6, 0xca, 0x4d, 0x3d, 0xdc, 0xad, 0x13, 0xbf,
  0xa2, 0xe4, 0xa5, 0x3b, 0x82, 0x05, 0x15, 0xbf, 0x8c, 0x7f, 0xe0, 0x3e,
  0xe7, 0x4d, 0x57, 0xbd, 0xe1, 0x99, 0x04, 0xbf, 0xc9, 0x38, 0xe1, 0xbe,
  0x24, 0xcf, 0x6f, 0x3d, 0x80, 0xe5, 0xce, 0xbd, 0x0e, 0x5e, 0x80, 0xbe,
  0xa0, 0x9c, 0x08, 0xbf, 0x35, 0xea, 0x09, 0xbf, 0x11, 0xc6, 0xc8, 0x3e,
  0x29, 0x52, 0x3d, 0x3e, 0xec, 0xeb, 0xc7, 0x3e, 0x46, 0x01, 0x06, 0x3e,
  0xbc, 0x71, 0x84, 0x3e, 0xf0, 0xc4, 0xf6, 0x3e, 0x9e, 0xc8, 0x81, 0x3e,
  0xed, 0x12, 0x1a, 0xbf, 0x35, 0x53, 0xb8, 0xbe, 0x7a, 0xee, 0x16, 0xbe,
  0x48, 0x5e, 0x24, 0x3e, 0xbc, 0x9a, 0x9c, 0x3d, 0x9e, 0xa3, 0xd3, 0x3d,
  0x14, 0xe8, 0xb1, 0x3c, 0x9b, 0xc7, 0x65, 0xbf, 0x52, 0x75, 0x9a, 0xbd,
  0xf1, 0x19, 0x92, 0xbe, 0x80, 0xb2, 0x19, 0xbf, 0x7a, 0xb8, 0xbf, 0x3e,
  0xa1, 0xdd, 0x1b, 0x3f, 0x24, 0x96, 0x04, 0x3f, 0xc2, 0xbb, 0x3e, 0x3e,
  0x65, 0x8e, 0x72, 0x3b, 0x34, 0xee, 0x83, 0x3e, 0x27, 0x06, 0xa7, 0x3e,
  0xb1, 0x08, 0x33, 0x3e, 0xc0, 0xf7, 0xb9, 0x3e, 0x7a, 0xf2, 0x3d, 0xbe,
  0x80, 0x70, 0x57, 0xbe, 0x87, 0xc1, 0x2e, 0xbf, 0x5e, 0x84, 0x24, 0x3c,
  0xf0, 0x2e, 0xb9, 0x3e, 0xf2, 0xd1, 0xdc, 0x3d, 0xe5, 0xb6, 0x79, 0x3e,
  0x6d, 0x93, 0xd5, 0xbd, 0x29, 0x24, 0x14, 0xbf, 0x0b, 0x5f, 0x82, 0xbd,
  0x14, 0xb2, 0x85, 0x3e, 0x84, 0xcc, 0xc2, 0x3e, 0x96, 0x9a, 0xfa, 0x3e,
  0x22, 0xa2, 0x51, 0x3d, 0xe2, 0xc4, 0xe4, 0x3e, 0xdc, 0x73, 0x98, 0x3d,
  0x82, 0xfd, 0xe1, 0xbe, 0x6b, 0x76, 0x9a, 0xbe, 0x20, 0x51, 0xbe, 0x3c,
  0xec, 0xae, 0x1e, 0xbe, 0xd0, 0x17, 0x0c, 0xbe, 0x4c, 0xee, 0x37, 0xbe,
  0xf4, 0x10, 0x31, 0xbe, 0x50, 0xcb, 0x55, 0xbe, 0xf4, 0xda, 0x20, 0xbe,
  0x84, 0x2b, 0x74, 0xbe, 0x80, 0x5e, 0x82, 0x3b, 0x70, 0x51, 0x04, 0x3d,
  0x00, 0xbd, 0x77, 0xbe, 0x2c, 0x87, 0x7c, 0xbe, 0x58, 0xa9, 0x07, 0xbe,
  0xd4, 0xee, 0x1a, 0xbe, 0xd0, 0xd6, 0xd2, 0xbd, 0x00, 0xa0, 0xb8, 0x3b,
  0x30, 0x1c, 0xcd, 0x3d, 0xc0, 0x7b, 0x35, 0xbc, 0x80, 0x5d, 0x32, 0x3d,
  0xb8, 0x69, 0x97, 0xbd, 0xc0, 0x36, 0x1c, 0xbe, 0x60, 0x12, 0xd0, 0x3c,
  0x80, 0x04, 0x58, 0xbc, 0xf0, 0x6f, 0xa9, 0xbd, 0xc4, 0x78, 0x6c, 0x3e,
  0x80, 0x9a, 0xf4, 0xbc, 0x70, 0xfc, 0x4e, 0xbe, 0x38, 0x0c, 0x63, 0x3e,
  0x80, 0x96, 0x41, 0x3e, 0x28, 0xe3, 0x7a, 0xbe, 0x88, 0xe4, 0x55, 0x3e,
  0xfc, 0x7a, 0x0b, 0xbe, 0x8e, 0x93, 0xc5, 0xbe, 0xcb, 0x78, 0x00, 0xbe,
  0x7f, 0x6b, 0x90, 0xbe, 0x02, 0x00, 0xa9, 0x3e, 0x3c, 0x27, 0x80, 0xbe,
  0x5f, 0x54, 0x88, 0x3e, 0xd6, 0xe3, 0xb6, 0x3e, 0x53, 0x76, 0xb4, 0xbd,
  0xa4, 0xdc, 0x78, 0xbf, 0x04, 0xb8, 0x6a, 0xbe, 0xa2, 0x25, 0x4d, 0x3f,
  0x91, 0x1e, 0xa3, 0xbe, 0xaf, 0x20, 0x8a, 0xbd, 0x79, 0xde, 0x95, 0xbe,
  0x96, 0x41, 0x2d, 0x3e, 0xdb, 0x96, 0xcd, 0x3b, 0x85, 0x03, 0x98, 0xbb,
  0x8d, 0x45, 0x2b, 0xbf, 0xa3, 0xb2, 0x9e, 0xbc, 0xad, 0x10, 0xeb, 0x3e,
  0x2d, 0xd5, 0x8b, 0x3c, 0xb4, 0xe8, 0xc5, 0x3e, 0x98, 0xd2, 0xb1, 0xbe,
  0x8f, 0xd6, 0xa5, 0x3e, 0x23, 0x40, 0xe2, 0x3d, 0xd0, 0xb0, 0x0b, 0xbe,
  0x6d, 0x3f, 0x37, 0x3e, 0x9e, 0x65, 0x16, 0xbd, 0x04, 0xd2, 0x0d, 0x3e,
  0x50, 0x17, 0x01, 0x3f, 0xbb, 0x6a, 0x97, 0xbe, 0x95, 0xf1, 0xf9, 0x3d,
  0x75, 0xa9, 0xc4, 0x3d, 0x21, 0x94, 0x59, 0x3e, 0x4d, 0xc3, 0x1c, 0x3d,
  0x3f, 0x0e, 0x5c, 0xbd, 0x76, 0x85, 0xa0, 0x3d, 0xe1, 0x49, 0x3d, 0x3e,
  0x7d, 0xc4, 0x00, 0x3e, 0x0c, 0x85, 0x4e, 0x3e, 0x3a, 0xdd, 0x58, 0xbe,
  0xb2, 0x2d, 0x57, 0xbe, 0x1a, 0x35, 0xec, 0xbe, 0x2a, 0x71, 0x76, 0xbd,
  0x0b, 0xf5, 0x69, 0x3e, 0x0c, 0x9a, 0x08, 0x3e, 0xa9, 0x9c, 0xb2, 0xbe,
  0x00, 0xd4, 0x5c, 0xbe, 0xf5, 0xe5, 0x03, 0x3e, 0xd1, 0xcc, 0xbc, 0x3e,
  0xd7, 0xf7, 0xb4, 0xbe, 0x07, 0xb1, 0xf9, 0xbe, 0x5b, 0x9d, 0xaa, 0x3e,
  0x2f, 0xe7, 0xd7, 0xbe, 0x04, 0x41, 0x09, 0x3e, 0xb7, 0xd2, 0x73, 0x3e,
  0xee, 0xf0, 0x53, 0xbf, 0x73, 0x79, 0xd2, 0xbd, 0x4d, 0x57, 0xca, 0xbe,
  0x08, 0x3a, 0x19, 0x3d, 0x6d, 0x50, 0x15, 0x3f, 0x84, 0xba, 0x30, 0xbe,
  0xca, 0xa2, 0x26, 0x3e, 0xf4, 0x13, 0xc1, 0x3e, 0x76, 0x53, 0x36, 0xbe,
  0x8c, 0x49, 0x4a, 0x3d, 0x1a, 0xed, 0xb9, 0xbe, 0xba, 0x46, 0xef, 0xbd,
  0x80, 0xaf, 0xa3, 0xbe, 0xd2, 0x67, 0x72, 0x3e, 0xbb, 0x7b, 0xc8, 0x3c,
  0x17, 0xe2, 0x11, 0x3f, 0xf1, 0x74, 0x1c, 0xbf, 0xf0, 0xc0, 0xbe, 0xbe,
  0x31, 0xcc, 0xf7, 0xbe, 0x79, 0x48, 0x1b, 0xbe, 0x0a, 0x19, 0x7c, 0xbc,
  0x10, 0xd8, 0x93, 0xbe, 0xee, 0x9e, 0x2d, 0xbe, 0x30, 0x3d, 0x87, 0xbc,
  0xac, 0x3f, 0x45, 0x3e, 0x62, 0x58, 0xbd, 0xbe, 0x3e, 0x67, 0xeb, 0x3d,
  0xd7, 0x36, 0x5d, 0xbf, 0x41, 0x05, 0xa2, 0x3e, 0xcd, 0x0f, 0x18, 0xbf,
  0x80, 0x33, 0x76, 0xbd, 0x29, 0xc9, 0x32, 0xbd, 0xda, 0x42, 0x2e, 0xbf,
  0x97, 0x59, 0x11, 0x3f, 0x09, 0x0e, 0x96, 0x3e, 0x4b, 0x33, 0x1d, 0x3d,
  0x2c, 0xdb, 0xb5, 0x3d, 0x7a, 0xdd, 0xf2, 0xbe, 0x85, 0x14, 0xab, 0xbd,
  0xa2, 0x10, 0x24, 0x3f, 0xb1, 0x89, 0x94, 0x3d, 0x30, 0x60, 0xd2, 0x3e,
  0x12, 0x27, 0xba, 0x3e, 0x13, 0x3d, 0xd9, 0xbd, 0x56, 0xd9, 0x8b, 0xbd,
  0x12, 0x6a, 0xfa, 0xbe, 0xed, 0x31, 0xc0, 0x3e, 0x3e, 0x33, 0x8e, 0x3d,
  0x85, 0x89, 0x57, 0x3e, 0x57, 0x70, 0x34, 0x3e, 0x77, 0x5a, 0x3c, 0xbf,
  0x4b, 0x27, 0x70, 0x3d, 0xc0, 0xa5, 0xa2, 0xbc, 0x09, 0xb6, 0x21, 0x3e,
  0x41, 0xb7, 0x49, 0x3e, 0x31, 0x16, 0x75, 0x3e, 0xca, 0xb5, 0x30, 0x3f,
  0x1e, 0xd4, 0x1d, 0xbf, 0xe7, 0xea, 0x42, 0xbe, 0x4f, 0x94, 0x68, 0xbe,
  0xde, 0x59, 0x58, 0xbe, 0x1b, 0x54, 0x34, 0xbd, 0x6e, 0x49, 0x9f, 0x3e,
  0xeb, 0x65, 0xa1, 0xbe, 0x0d, 0x00, 0x8a, 0x3d, 0x74, 0x22, 0xfd, 0x3e,
  0x01, 0x11, 0x14, 0x3e, 0x81, 0x53, 0x1c, 0xbd, 0x02, 0x54, 0x28, 0x3e,
  0x29, 0xc6, 0x2e, 0x3e, 0x41, 0x7e, 0xae, 0x3e, 0x0e, 0x7a, 0xfc, 0xbd,
  0x93, 0x05, 0xca, 0x3d, 0x67, 0x6a, 0x39, 0x3d, 0xdd, 0x43, 0x2d, 0x3d,
  0xe7, 0x87, 0x9f, 0x3e, 0x56, 0x20, 0xf7, 0xbd, 0x0f, 0x82, 0xa5, 0xbe,
  0x40, 0x8e, 0x6a, 0xbc, 0xc6, 0x5d, 0x78, 0xbe, 0x46, 0xea, 0xe9, 0x3e,
  0x9c, 0xde, 0x1e, 0x3e, 0xe8, 0x14, 0xc6, 0x3d, 0xce, 0xa5, 0x9b, 0x3d,
  0x22, 0x57, 0xa3, 0xbc, 0x2d, 0x26, 0x44, 0x3e, 0xe5, 0xa1, 0x3f, 0x3d,
  0x11, 0xc4, 0x4b, 0x3e, 0x35, 0xc3, 0x64, 0xbe, 0x4d, 0x58, 0xb2, 0xbe,
  0xf2, 0x7b, 0xdb, 0x3e, 0x8b, 0x8a, 0x6c, 0x3e, 0xb0, 0x21, 0xba, 0xbe,
  0x7f, 0x64, 0x85, 0x3e, 0xe6, 0x0d, 0x97, 0x3e, 0x22, 0x7a, 0xf0, 0xbe,
  0x04, 0xea, 0x53, 0x3e, 0x00, 0x49, 0xd4, 0x3c, 0x9f, 0xc1, 0xb3, 0x3d,
  0x63, 0xfa, 0x73, 0x3d, 0x4e, 0xe8, 0x15, 0xbf, 0x3f, 0x10, 0x2b, 0x3e,
  0xc4, 0xc8, 0xb9, 0xbd, 0x78, 0x25, 0x81, 0xbd, 0xc2, 0x36, 0x7b, 0xbe,
  0x56, 0xfe, 0x01, 0xbe, 0x35, 0x95, 0xa3, 0x3d, 0xb8, 0xfb, 0x96, 0x3e,
  0xcc, 0xf4, 0x40, 0x3e, 0x2e, 0xc4, 0x5b, 0xbe, 0xc0, 0xee, 0x87, 0x3c,
  0x29, 0xd2, 0xeb, 0xbe, 0xa5, 0xab, 0xcd, 0x3e, 0x35, 0x51, 0x23, 0x3e,
  0xb5, 0x3d, 0x6c, 0x3d, 0x7f, 0x16, 0x8b, 0xbd, 0x08, 0xb4, 0x8a, 0xbd,
  0xc3, 0xd2, 0x86, 0x3d, 0x4a, 0x8e, 0x15, 0x3e, 0xac, 0x07, 0xae, 0x3c,
  0x1b, 0x45, 0x16, 0xbe, 0x28, 0xb4, 0xb7, 0xbe, 0xeb, 0x98, 0xed, 0x3e,
  0x7a, 0x8d, 0x8e, 0x3e, 0x47, 0x80, 0x90, 0x3d, 0x54, 0x51, 0x63, 0xbd,
  0xe7, 0x1b, 0x8e, 0x3e, 0xf5, 0x6d, 0xd7, 0xbc, 0xb4, 0x91, 0x10, 0x3e,
  0xfd, 0x01, 0x87, 0x3e, 0x36, 0xb3, 0x1f, 0xbd, 0x0a, 0x23, 0x24, 0x3e,
  0xba, 0xc0, 0x36, 0xbe, 0x0a, 0x67, 0xb0, 0x3e, 0x9f, 0x82, 0x9b, 0x3e,
  0x45, 0x8b, 0x91, 0xbe, 0xe1, 0x10, 0xf4, 0xbe, 0xc0, 0x3c, 0x23, 0x3f,
  0xb9, 0xb3, 0xfa, 0xbe, 0x08, 0xf1, 0x88, 0x3d, 0x03, 0x40, 0xa1, 0x3d,
  0x93, 0xf3, 0xf7, 0xbe, 0x21, 0x96, 0xba, 0x3e, 0x0c, 0xd0, 0x9b, 0x3e,
  0x53, 0xed, 0x24, 0xbe, 0x6f, 0x56, 0x8f, 0x3e, 0x9d, 0x86, 0x82, 0x3e,
  0xe5, 0xd8, 0x17, 0x3e, 0x12, 0x6a, 0x51, 0x3e, 0x44, 0xda, 0x69, 0x3e,
  0x15, 0x12, 0x1c, 0xbe, 0x29, 0x73, 0x9b, 0xbd, 0xa0, 0x52, 0x05, 0x3d,
  0x1a, 0xe8, 0x31, 0xbf, 0xcb, 0xae, 0x2f, 0x3c, 0x40, 0xfa, 0x80, 0xbe,
  0x55, 0x9b, 0xe7, 0x3e, 0x92, 0x27, 0xcf, 0x3b, 0xb0, 0x43, 0x02, 0x3f,
  0xa9, 0xf6, 0x99, 0xbe, 0x18, 0x39, 0x5a, 0xbe, 0x7b, 0x16, 0x08, 0x3f,
  0x8d, 0x24, 0x40, 0x3e, 0x71, 0xbd, 0x09, 0xbe, 0x44, 0xd9, 0x6c, 0xbe,
  0x8b, 0x3a, 0xe0, 0xbd, 0x1e, 0xae, 0xd6, 0x3e, 0x3f, 0x51, 0x91, 0xbf,
  0x8c, 0x8d, 0x03, 0xbe, 0x56, 0x89, 0xef, 0x3d, 0xa3, 0x15, 0xa6, 0xbd,
  0xc5, 0xc8, 0xd7, 0x3e, 0x47, 0x73, 0xf7, 0x3d, 0xe4, 0x5b, 0xd8, 0xbd,
  0x61, 0xb1, 0x22, 0xbf, 0x9d, 0x88, 0xfc, 0xbd, 0x98, 0x1d, 0x25, 0xbd,
  0x5f, 0x10, 0xee, 0x3c, 0x0b, 0x50, 0x2e, 0x3e, 0xc3, 0xe3, 0xc3, 0xbd,
  0xf1, 0x00, 0x47, 0xbe, 0x50, 0xb9, 0xc4, 0xbd, 0x00, 0x61, 0x3f, 0xbd,
  0x08, 0xd0, 0xd5, 0xbc, 0x62, 0xb1, 0x55, 0x3e, 0xac, 0x45, 0x71, 0xbe,
  0xf8, 0xbf, 0x5e, 0xbe, 0xb6, 0x04, 0xc6, 0xbd, 0x76, 0xf6, 0xea, 0x3d,
  0x72, 0x8b, 0xa7, 0x3e, 0x50, 0xee, 0xc5, 0x3e, 0xf9, 0x14, 0x49, 0x3e,
  0xa3, 0x91, 0x0a, 0x3e, 0x7a, 0x97, 0x7c, 0xbe, 0x67, 0x67, 0x0d, 0xbe,
  0x3d, 0x86, 0x85, 0x3c, 0xd4, 0x94, 0x9e, 0xbe, 0xa1, 0x2e, 0x35, 0xbe,
  0xdf, 0xb2, 0x60, 0x3e, 0x5a, 0xf5, 0x0a, 0xbe, 0xe9, 0xf4, 0xbb, 0xbd,
  0x9c, 0x00, 0x5d, 0xbe, 0xee, 0xff, 0xb7, 0xbd, 0xd0, 0x2f, 0x0b, 0x3e,
  0xb0, 0xaa, 0x0a, 0xbe, 0xb9, 0xfd, 0x14, 0x3e, 0xa7, 0xb9, 0x41, 0xbe,
  0xfb, 0x97, 0x0e, 0x3e, 0xb3, 0x9a, 0x16, 0xbe, 0xf6, 0x0b, 0xa8, 0xbb,
  0xeb, 0x39, 0x68, 0xbe, 0xf1, 0xe5, 0x62, 0xbc, 0xd3, 0xac, 0x80, 0xba,
  0x9a, 0xbe, 0x48, 0xbe, 0x40, 0xf4, 0xfd, 0x3d, 0x5c, 0xb5, 0x35, 0xbe,
  0x9d, 0xe1, 0xfd, 0xbd, 0xff, 0x95, 0x3a, 0x3e, 0xd5, 0xd0, 0x45, 0xbc,
  0x68, 0xf0, 0x5c, 0xbd, 0x35, 0x60, 0x17, 0xbe, 0xcd, 0x99, 0x1b, 0xbe,
  0xde, 0x17, 0x16, 0x3e, 0x06, 0x9f, 0x4c, 0xbe, 0x0c, 0x92, 0xe8, 0x3d,
  0x1a, 0x16, 0xcc, 0x3d, 0xf9, 0x5f, 0x04, 0x3d, 0x6e, 0xb5, 0xf9, 0xbd,
  0x54, 0xcc, 0x64, 0xbe, 0x87, 0xc4, 0x08, 0xbe, 0xff, 0xa6, 0x00, 0xbc,
  0x0c, 0xe6, 0x0f, 0xbe, 0xf6, 0x4b, 0x47, 0xbe, 0x69, 0xb3, 0x7c, 0xbd,
  0x58, 0xf5, 0x20, 0x3e, 0xa0, 0x2d, 0xaf, 0x3c, 0xb8, 0x24, 0xa7, 0xbd,
  0xe0, 0x7e, 0xcd, 0xbd, 0x51, 0x75, 0xa3, 0xbd, 0xf9, 0x15, 0x3f, 0x3e,
  0xa0, 0xc5, 0x60, 0xbe, 0xb8, 0xd7, 0x6b, 0xbe, 0x75, 0x62, 0x34, 0x3e,
  0x40, 0xf0, 0x27, 0xbe, 0xf5, 0x55, 0x80, 0xbe, 0xfa, 0x78, 0xbf, 0x3d,
  0xfb, 0xb9, 0x9f, 0xbd, 0x3c, 0x16, 0x04, 0xbe, 0xc3, 0x43, 0x99, 0x3d,
  0x44, 0xa9, 0x1a, 0xbe, 0xa1, 0x0f, 0x35, 0x3e, 0x6c, 0x2e, 0x33, 0xbe,
  0x5c, 0x16, 0x44, 0xbe, 0x4c, 0xc3, 0x59, 0xbe, 0x16, 0x32, 0x97, 0xbd,
  0xf5, 0x6a, 0x8d, 0xbe, 0xe0, 0x9e, 0xcb, 0xbd, 0xd8, 0x08, 0xa5, 0xbd,
  0x04, 0xd6, 0x52, 0xbe, 0xd0, 0xb6, 0x8a, 0xbd, 0xed, 0x7c, 0xd4, 0xbd,
  0x70, 0x98, 0x27, 0xbd, 0xef, 0x1e, 0x56, 0xbe, 0x82, 0x4e, 0xaf, 0x3d,
  0xc1, 0x63, 0xb1, 0x3e, 0x30, 0x72, 0xa2, 0xbe, 0xf1, 0x6e, 0x7a, 0xbe,
  0x9a, 0xc6, 0x08, 0xbf, 0x6c, 0xa1, 0xd1, 0x3b, 0x67, 0x86, 0x23, 0x3f,
  0xd4, 0xcb, 0xea, 0x3e, 0xd9, 0x51, 0x2d, 0x3f, 0x15, 0x2d, 0x6d, 0xbe,
  0x75, 0x8b, 0x17, 0x3d, 0x15, 0x78, 0xc0, 0xbc, 0xeb, 0xb6, 0xa7, 0x3e,
  0x4c, 0x5a, 0x2e, 0x3e, 0x16, 0x0e, 0x05, 0x3e, 0x59, 0xea, 0x9d, 0xbc,
  0xb6, 0x40, 0x89, 0xbc, 0x7f, 0x7e, 0x21, 0x3d, 0x16, 0xcf, 0xdb, 0x3e,
  0xd2, 0xfa, 0x3c, 0xbe, 0x3c, 0x93, 0x92, 0x3d, 0xcf, 0x60, 0x68, 0xbe,
  0x57, 0x68, 0x51, 0x3e, 0xad, 0x35, 0x44, 0xbe, 0xc9, 0xc0, 0x85, 0x3e,
  0x6f, 0xf6, 0x4e, 0x3e, 0x77, 0xf8, 0x19, 0xbf, 0xc7, 0xfb, 0x97, 0x3e,
  0x10, 0x4c, 0xee, 0xbd, 0x46, 0x4a, 0x02, 0x3f, 0x29, 0xc7, 0x70, 0xbe,
  0xfb, 0x03, 0xae, 0xbe, 0xd9, 0x42, 0x7c, 0x3e, 0x44, 0x6a, 0x5f, 0x3d,
  0x3b, 0x8a, 0xf6, 0xbc, 0x04, 0xc7, 0x54, 0xbf, 0x35, 0x75, 0x65, 0x3e,
  0xf9, 0x45, 0xa3, 0xbd, 0x3a, 0xcc, 0xe9, 0xbe, 0x76, 0x8c, 0xe1, 0x3c,
  0xb9, 0x7a, 0x30, 0x3f, 0xe2, 0x96, 0x08, 0xbf, 0x59, 0x12, 0x3f, 0xbe,
  0x72, 0x32, 0x61, 0x3c, 0x50, 0xa9, 0x6d, 0xbd, 0x49, 0x28, 0x25, 0x3e,
  0x0c, 0x6c, 0x39, 0xbe, 0x37, 0x5f, 0x1a, 0xbf, 0x74, 0xb6, 0xa7, 0x3c,
  0x1d, 0x11, 0x27, 0x3e, 0x22, 0x11, 0xe7, 0x3c, 0x6b, 0xdf, 0xfd, 0x3b,
  0x4d, 0x0c, 0xac, 0xbe, 0x83, 0xc2, 0x98, 0x3e, 0x5c, 0x52, 0x8a, 0xbe,
  0xcd, 0x61, 0x0e, 0xbd, 0x08, 0x70, 0xf3, 0xba, 0xca, 0x60, 0xb3, 0xbe,
  0x79, 0x23, 0x8e, 0xbd, 0x10, 0x3a, 0xea, 0xbd, 0x5b, 0x37, 0x91, 0xbe,
  0xcd, 0x67, 0xcc, 0xbd, 0xc7, 0x46, 0x0b, 0xbf, 0x5a, 0xa2, 0x3e, 0x3e,
  0x92, 0x9b, 0x43, 0x3f, 0x39, 0xec, 0xed, 0x3e, 0x90, 0xcc, 0xb2, 0xbe,
  0x36, 0x84, 0x82, 0xbe, 0x5a, 0x38, 0x08, 0xbf, 0x94, 0x4a, 0x10, 0xbe,
  0xc8, 0x5b, 0x39, 0x3e, 0xf2, 0x48, 0xc5, 0x3e, 0xe6, 0xc8, 0x18, 0x3f,
  0xe5, 0x4d, 0x86, 0xbe, 0x19, 0xd1, 0x4f, 0x3c, 0x8d, 0xf9, 0xf6, 0x3c,
  0x05, 0x5a, 0x22, 0xbe, 0x48, 0x96, 0xf9, 0xb9, 0x41, 0x57, 0xfa, 0x3d,
  0xcb, 0xb3, 0x62, 0x3e, 0x82, 0x38, 0xe2, 0xbc, 0x1e, 0xfb, 0x0b, 0x3e,
  0x16, 0x57, 0x64, 0x3e, 0xde, 0x42, 0x2a, 0xbd, 0x6f, 0x52, 0x21, 0x3d,
  0xaa, 0x71, 0xb4, 0x3e, 0x84, 0x18, 0x5c, 0x3e, 0x44, 0xb5, 0x06, 0xbf,
  0x5f, 0xc5, 0x11, 0x3e, 0xc7, 0x3e, 0x02, 0xbd, 0xc8, 0xcd, 0xf6, 0xbe,
  0x55, 0xc4, 0x02, 0x3f, 0xd4, 0xc8, 0x61, 0x3e, 0x44, 0xbe, 0x25, 0x3f,
  0xea, 0xf3, 0x83, 0x3e, 0xc2, 0xa2, 0x42, 0xbe, 0x44, 0xf1, 0x81, 0x3e,
  0x42, 0xcf, 0xf6, 0xbd, 0x5c, 0x7f, 0xa3, 0x3e, 0xbd, 0xc5, 0x88, 0x3e,
  0x39, 0xe0, 0x6a, 0xbe, 0xc3, 0xf5, 0x43, 0x3e, 0x75, 0x8e, 0xdb, 0x3e,
  0x33, 0x5c, 0x5c, 0xbc, 0x2a, 0x82, 0xcd, 0x3e, 0x62, 0xe0, 0x81, 0xbe,
  0x98, 0xe3, 0x6b, 0x3c, 0x11, 0x3e, 0x56, 0x3e, 0x48, 0x85, 0x2f, 0x3e,
  0x74, 0xce, 0x0a, 0x3e, 0x1d, 0xc5, 0x3c, 0x3d, 0x0a, 0x92, 0xd8, 0xbe,
  0x75, 0x3c, 0x77, 0x3e, 0x1e, 0xa1, 0x9d, 0x3e, 0xa8, 0x66, 0x23, 0x3e,
  0x91, 0xd0, 0xa8, 0xbe, 0x31, 0xc1, 0xe6, 0xbe, 0x93, 0x5a, 0xb0, 0x3e,
  0x2b, 0xc7, 0xa2, 0xbe, 0xb2, 0xb5, 0x40, 0xbe, 0xcf, 0xae, 0xb0, 0x3e,
  0x5b, 0x18, 0xac, 0xbe, 0x2f, 0x95, 0x72, 0xbe, 0x1f, 0x76, 0x21, 0xbe,
  0xd0, 0x3e, 0xa2, 0x37, 0x62, 0x77, 0x01, 0x3f, 0x33, 0x50, 0x68, 0xbe,
  0x1a, 0xf0, 0xd0, 0xbb, 0x43, 0x40, 0x28, 0x3e, 0x78, 0x85, 0x29, 0xbe,
  0x7d, 0x3b, 0xe7, 0x3d, 0xe7, 0x2f, 0x0a, 0x3e, 0xb6, 0x28, 0x23, 0x3d,
  0x24, 0x7a, 0x22, 0x3e, 0xd3, 0x3b, 0x3e, 0xbe, 0xe5, 0x81, 0xae, 0xbe,
  0x5b, 0xf5, 0xd3, 0xbe, 0x35, 0xb2, 0x95, 0x3e, 0x81, 0xc5, 0x7e, 0x3e,
  0xf4, 0xb4, 0x8f, 0x3e, 0x09, 0x13, 0x47, 0xbd, 0x95, 0x09, 0xf7, 0xbd,
  0x01, 0x3c, 0x6f, 0x3e, 0xad, 0xe2, 0xdc, 0xbd, 0xe4, 0x90, 0xa0, 0x3d,
  0x91, 0xfa, 0x49, 0x3e, 0xb6, 0x23, 0xb2, 0xbe, 0x22, 0xd7, 0x89, 0x3d,
  0x26, 0x68, 0xac, 0x3e, 0x1a, 0x7f, 0xe2, 0x3d, 0x75, 0x76, 0x70, 0x3d,
  0x57, 0x07, 0xe3, 0x3e, 0xb5, 0x49, 0x77, 0x3d, 0x5b, 0x36, 0x8b, 0x3e,
  0x4e, 0xb0, 0xd9, 0xbd, 0xda, 0x9e, 0x30, 0xbe, 0xa4, 0xa9, 0xde, 0xbd,
  0x02, 0xf8, 0xa7, 0xbe, 0x87, 0xdf, 0x81, 0x3d, 0x33, 0xbe, 0x74, 0x3e,
  0x8a, 0x1b, 0xf5, 0xbd, 0x63, 0xd5, 0x15, 0xbe, 0xec, 0x09, 0x08, 0x3e,
  0x90, 0xdc, 0x4c, 0x3d, 0xd3, 0x7f, 0x51, 0xbe, 0xae, 0xc9, 0x45, 0x3d,
  0x10, 0x9a, 0x2f, 0x3e, 0xe1, 0x00, 0x7c, 0xbe, 0xfa, 0x1f, 0x40, 0x3e,
  0x00, 0x83, 0x17, 0xbc, 0x0e, 0xf0, 0xa0, 0xbd, 0x11, 0xaf, 0xda, 0xbd,
  0xc3, 0xfd, 0x59, 0xbe, 0x67, 0x87, 0x54, 0xbe, 0x50, 0xbb, 0x28, 0xbe,
  0x67, 0xc6, 0xe1, 0x3c, 0xf8, 0x40, 0x01, 0x3e, 0x46, 0xdc, 0xae, 0xbd,
  0xd0, 0xa2, 0x08, 0x3d, 0xca, 0xf6, 0x92, 0xbe, 0x88, 0x36, 0xae, 0xbd,
  0xe3, 0x41, 0x60, 0xbe, 0x11, 0x0d, 0xe3, 0xbc, 0xa2, 0x27, 0x92, 0x3d,
  0x6d, 0x57, 0x3a, 0xbe, 0x15, 0x3d, 0x4a, 0xbe, 0xdc, 0x70, 0x3f, 0x3e,
  0xb0, 0x29, 0x24, 0x3e, 0x71, 0x45, 0xc3, 0xbd, 0xfc, 0x25, 0xb2, 0x3d,
  0xd4, 0x77, 0x50, 0xbe, 0x56, 0xc3, 0x40, 0xbe, 0x4c, 0x63, 0x1f, 0xbe,
  0x60, 0x06, 0xa1, 0x3e, 0x61, 0xa0, 0xdb, 0x3d, 0x45, 0x38, 0x15, 0x3e,
  0xbf, 0xc6, 0x34, 0xbd, 0xa2, 0x55, 0xb7, 0xbe, 0xb8, 0x83, 0x3a, 0xbf,
  0x1c, 0x5f, 0x02, 0x3e, 0x77, 0x59, 0x2d, 0xbb, 0xb2, 0xf1, 0xab, 0xbe,
  0x77, 0x4d, 0xde, 0xbd, 0x04, 0x64, 0xac, 0xbe, 0x4d, 0x0a, 0xa9, 0x3e,
  0x8b, 0x67, 0xea, 0xbd, 0xf9, 0x0c, 0x9c, 0x3d, 0x43, 0x21, 0x32, 0xbe,
  0xea, 0x80, 0x33, 0x3e, 0xb6, 0xf8, 0xc6, 0x3d, 0xd8, 0x90, 0x83, 0x3e,
  0x28, 0x26, 0x24, 0x3e, 0xbd, 0x06, 0xef, 0xbd, 0x41, 0x87, 0x2f, 0x3d,
  0xc3, 0xbd, 0x56, 0xbd, 0x95, 0x69, 0x23, 0x3e, 0xb9, 0x93, 0x0c, 0xbd,
  0xb2, 0xe3, 0x2d, 0x3d, 0x3b, 0x86, 0x82, 0x3e, 0x27, 0x2d, 0x9e, 0xbe,
  0x03, 0x30, 0x19, 0x3e, 0x3c, 0x5d, 0xa2, 0x3e, 0x7c, 0xca, 0x8c, 0xbd,
  0x4e, 0x77, 0x70, 0xbe, 0x3f, 0x10, 0x74, 0xbd, 0xb4, 0x23, 0x0e, 0xbe,
  0x56, 0x97, 0x28, 0xbd, 0xf6, 0x31, 0x8e, 0xbd, 0x49, 0xd6, 0xa8, 0x3e,
  0x09, 0xb9, 0x87, 0x3e, 0x2c, 0xc7, 0x41, 0x3e, 0x75, 0x4c, 0x74, 0x3e,
  0x0d, 0xaa, 0x05, 0x3e, 0x36, 0xd1, 0x11, 0xbd, 0x59, 0xfa, 0xe4, 0xbe,
  0x54, 0x25, 0x87, 0xbf, 0xba, 0xe6, 0xfc, 0x3d, 0xfa, 0x8a, 0x36, 0xbe,
  0xfd, 0x69, 0x97, 0xbd, 0x3d, 0xd7, 0xa3, 0xbf, 0x42, 0x9d, 0xb3, 0x3d,
  0x1f, 0x72, 0x05, 0xbe, 0x85, 0xe1, 0xdc, 0xbd, 0xdb, 0xac, 0x08, 0xbe,
  0x59, 0xf3, 0xdc, 0xbe, 0xf7, 0x33, 0x00, 0x3f, 0x52, 0x4c, 0x95, 0xbf,
  0xdb, 0xb8, 0xa5, 0xbd, 0x85, 0x56, 0x46, 0x3e, 0x47, 0x83, 0x4a, 0xbf,
  0x74, 0xe7, 0x7a, 0x3e, 0x05, 0x0e, 0x2a, 0xbf, 0x7e, 0x8e, 0x74, 0xbe,
  0x4e, 0x0e, 0xcc, 0x3e, 0x86, 0x09, 0xdb, 0xbe, 0x05, 0xa8, 0x84, 0x3e,
  0x30, 0x44, 0xf8, 0x3d, 0xda, 0x22, 0x3e, 0xbe, 0x7a, 0x99, 0x82, 0x3b,
  0xf0, 0x88, 0x4b, 0xbe, 0x18, 0xd6, 0xa7, 0x3d, 0xbb, 0x5b, 0x87, 0xbe,
  0x46, 0xca, 0x7a, 0xbe, 0x8b, 0x8e, 0xc8, 0x3e, 0x04, 0xb9, 0x77, 0xbe,
  0xc1, 0x8c, 0x81, 0xbd, 0x66, 0x54, 0x13, 0xbf, 0xb8, 0x09, 0x4a, 0x3f,
  0xed, 0x6b, 0x16, 0x3e, 0x4f, 0x2c, 0xfc, 0xbe, 0x77, 0x41, 0x62, 0xbe,
  0x5a, 0x70, 0x26, 0xbe, 0x2a, 0xc3, 0x12, 0xbd, 0x97, 0xf5, 0x82, 0xbe,
  0xe9, 0xed, 0xfc, 0x3c, 0xcd, 0xa0, 0xdf, 0xbe, 0xda, 0x2b, 0xbe, 0x3e,
  0x90, 0x5f, 0xe3, 0x3c, 0xfc, 0x7f, 0xce, 0x3e, 0xc6, 0x2f, 0xb0, 0x3e,
  0x82, 0xe1, 0x72, 0x3a, 0x46, 0xae, 0x21, 0x3f, 0xb6, 0x22, 0x0c, 0x3e,
  0x2c, 0x1d, 0xa5, 0xbe, 0x9d, 0x1b, 0xb3, 0xbe, 0xb1, 0x9a, 0x7b, 0x3e,
  0x3d, 0x30, 0x2f, 0x3e, 0x12, 0x7c, 0xb9, 0xbe, 0x04, 0x4b, 0x93, 0x3d,
  0x7e, 0x48, 0xa4, 0xbe, 0x52, 0xd5, 0x80, 0xbd, 0xe6, 0xda, 0xe7, 0xbe,
  0xcc, 0x12, 0xce, 0xbe, 0x03, 0xdb, 0x21, 0xbe, 0xda, 0x72, 0x42, 0x3f,
  0x56, 0xb8, 0x35, 0x3f, 0x6d, 0x13, 0xff, 0x3e, 0xae, 0xd7, 0xcc, 0xbe,
  0xac, 0xf3, 0xc1, 0xbe, 0xdf, 0x3d, 0xa0, 0xbc, 0x5c, 0x20, 0xe3, 0x3c,
  0xcd, 0xcf, 0xc8, 0xbd, 0xaa, 0x3a, 0x78, 0xbe, 0xab, 0xc8, 0x6a, 0x3e,
  0x8a, 0x1b, 0x80, 0xbd, 0x28, 0xf4, 0x7b, 0xbe, 0xf2, 0xdc, 0xf2, 0xbe,
  0xc5, 0xcf, 0x86, 0x3e, 0x1e, 0x9d, 0x38, 0x3e, 0xc6, 0xbc, 0xce, 0x3e,
  0x74, 0x1a, 0x33, 0xbe, 0xae, 0xcf, 0x95, 0x3c, 0x05, 0xb9, 0x7d, 0xbd,
  0x35, 0xd2, 0x8f, 0x3e, 0x9f, 0x14, 0x4a, 0x3e, 0x52, 0xdb, 0xd4, 0x3e,
  0xa8, 0x87, 0x2e, 0x3e, 0xa8, 0x56, 0x14, 0x3f, 0xab, 0x45, 0x6c, 0xbe,
  0x41, 0xa5, 0x23, 0xbc, 0x88, 0x26, 0x53, 0xbe, 0x44, 0x1e, 0xe6, 0x3c,
  0xc7, 0x9f, 0x2d, 0xbe, 0x6e, 0xa5, 0x68, 0xbe, 0x12, 0x22, 0x90, 0xbc,
  0x2c, 0x97, 0xbd, 0xbd, 0xe8, 0x7c, 0x9f, 0x3d, 0x5e, 0x94, 0x14, 0x3d,
  0x6a, 0x4a, 0xef, 0xbd, 0x14, 0xad, 0x83, 0x3d, 0x47, 0xa0, 0x9f, 0x3a,
  0x3c, 0xb4, 0xda, 0x3b, 0x4a, 0x13, 0x4e, 0xbe, 0xa0, 0x20, 0x21, 0xbe,
  0x59, 0x78, 0x6a, 0x3d, 0x15, 0xc3, 0x5a, 0xbd, 0x20, 0x34, 0xc3, 0xbc,
  0x17, 0xcd, 0x6f, 0xbe, 0xcb, 0x45, 0x2f, 0x3d, 0x28, 0x34, 0xe3, 0x3d,
  0xac, 0xb1, 0x17, 0x3d, 0x01, 0xd8, 0x80, 0x3d, 0x95, 0x85, 0x90, 0xbd,
  0x9c, 0xbd, 0x6a, 0xbe, 0x1d, 0xe5, 0x48, 0xbe, 0x66, 0x9f, 0xcb, 0xbd,
  0x72, 0xbd, 0xc3, 0x3c, 0x93, 0x78, 0x9e, 0xbd, 0xa6, 0xe3, 0x88, 0x3d,
  0x27, 0x4f, 0x86, 0x3d, 0x50, 0x75, 0x6f, 0xbd, 0xc9, 0x50, 0x94, 0xbe,
  0xf1, 0xae, 0xf5, 0xbd, 0x5a, 0xfc, 0xff, 0xff, 0x04, 0x00, 0x00, 0x00,
  0x00, 0x03, 0x00, 0x00, 0x4c, 0x2a, 0x98, 0xbf, 0x24, 0x4d, 0xb3, 0x3d,
  0xf2, 0xce, 0x6d, 0xbf, 0x5f, 0xf4, 0x5f, 0xc0, 0xd1, 0x3d, 0xbe, 0xbe,
  0xb5, 0x83, 0x9f, 0x3c, 0xdf, 0xf7, 0x21, 0x3f, 0x89, 0x99, 0x54, 0xbf,
  0xce, 0xa4, 0x42, 0xbf, 0x6f, 0xec, 0x03, 0x3f, 0x75, 0xe8, 0x49, 0x3d,
  0x80, 0xa9, 0x03, 0x3f, 0xc2, 0x6a, 0xf0, 0xbd, 0x28, 0x17, 0x2e, 0x3e,
  0xbb, 0x0a, 0x7f, 0xbc, 0xeb, 0x65, 0x93, 0x3e, 0x47, 0x9d, 0x6a, 0xbf,
  0x91, 0x9c, 0x9b, 0x3d, 0x61, 0x83, 0x1e, 0x3c, 0x8f, 0xe5, 0x98, 0x3e,
  0xbd, 0xa7, 0x40, 0xbf, 0xc5, 0x00, 0xbe, 0x3e, 0x80, 0x29, 0x6c, 0x3d,
  0x6b, 0x8b, 0x88, 0xbe, 0xe6, 0x4b, 0x38, 0x3e, 0x3b, 0x28, 0x4b, 0x3c,
  0x0e, 0xf6, 0x7d, 0xbf, 0x00, 0xdf, 0xe7, 0xbc, 0xdc, 0xd6, 0xa3, 0x3e,
  0x59, 0xc8, 0x0a, 0x3e, 0xc2, 0xd2, 0xb5, 0xbf, 0x71, 0xab, 0xb8, 0x3d,
  0xae, 0x52, 0x17, 0xc0, 0xbe, 0xc7, 0x24, 0x3e, 0x74, 0x14, 0x85, 0x3e,
  0xf6, 0xa9, 0x68, 0xbf, 0x61, 0x49, 0xd0, 0xbf, 0x0b, 0x21, 0x6a, 0x3f,
  0xa0, 0x1b, 0x32, 0x3d, 0x6f, 0x55, 0x97, 0x3d, 0xb3, 0xcb, 0x8a, 0xbf,
  0xee, 0xd0, 0x61, 0x3e, 0xd0, 0x16, 0xe6, 0x3c, 0xc2, 0x40, 0x92, 0xbf,
  0x48, 0xeb, 0x88, 0x3e, 0xc1, 0x72, 0x66, 0x3f, 0xe0, 0x19, 0x95, 0x3d,
  0x72, 0x72, 0xa6, 0xbe, 0xf3, 0x3a, 0x6f, 0xbe, 0x9c, 0x34, 0x8e, 0x3e,
  0x99, 0xca, 0x40, 0x3c, 0x99, 0x60, 0x2c, 0x3e, 0x94, 0x00, 0xe7, 0xbd,
  0x25, 0x39, 0x07, 0x3f, 0x14, 0xb2, 0xe2, 0x3e, 0xb7, 0x6c, 0xd6, 0x3e,
  0xf3, 0x6f, 0x21, 0x3d, 0xe2, 0xeb, 0x79, 0x3d, 0x30, 0x1b, 0xa1, 0xbd,
  0xa1, 0xc3, 0x15, 0xbe, 0x0c, 0xd0, 0x5b, 0x3f, 0xa5, 0xcd, 0xa9, 0xbf,
  0x6d, 0x89, 0x2f, 0x3f, 0x8d, 0x32, 0x87, 0xbe, 0x68, 0x10, 0xf0, 0x3c,
  0x81, 0x44, 0x7f, 0x3d, 0x96, 0x3d, 0x58, 0x3e, 0x9d, 0xe8, 0xa6, 0xbf,
  0xa3, 0xf9, 0xd9, 0x3c, 0xcd, 0x07, 0x83, 0xbf, 0xb9, 0x3e, 0xbb, 0x3e,
  0x62, 0x00, 0x31, 0xbd, 0x39, 0x31, 0x87, 0xbf, 0x22, 0x87, 0x63, 0x3e,
  0xb8, 0xf5, 0x69, 0xbe, 0xdc, 0x1e, 0xb1, 0x3e, 0xbe, 0xaa, 0xff, 0xbe,
  0x98, 0xe7, 0x21, 0xbf, 0x3f, 0x3f, 0x4a, 0xbe, 0xfb, 0x73, 0x08, 0xbe,
  0x6e, 0x10, 0x60, 0x3e, 0xb6, 0xc9, 0x57, 0xbf, 0x65, 0x71, 0x72, 0xbe,
  0xab, 0x23, 0x68, 0x3e, 0xc0, 0x4e, 0xdf, 0x3e, 0xc6, 0x75, 0x9b, 0x3f,
  0x70, 0xea, 0x3a, 0xbf, 0xa7, 0xb5, 0x92, 0xbe, 0x45, 0xe9, 0xa3, 0xbe,
  0x9e, 0x96, 0xd6, 0x3d, 0xd3, 0x6d, 0x5b, 0xbe, 0x26, 0xc2, 0x24, 0x3e,
  0xd6, 0xed, 0x8e, 0xbf, 0x07, 0x00, 0x12, 0xbf, 0xfd, 0x5a, 0x8c, 0x3e,
  0x21, 0x94, 0xa2, 0xbf, 0xb6, 0x15, 0x5e, 0xbf, 0x4c, 0xc9, 0x30, 0x3e,
  0x8b, 0x02, 0x8f, 0x3e, 0xb3, 0x24, 0x55, 0x3c, 0x0f, 0xd3, 0x27, 0x3e,
  0x55, 0x87, 0x7e, 0x3f, 0x20, 0x2d, 0x44, 0x3e, 0x59, 0x19, 0xa9, 0xbf,
  0xba, 0x7b, 0x66, 0x3e, 0xe7, 0xdd, 0x18, 0x3f, 0xd0, 0x3e, 0xed, 0xbd,
  0x63, 0x1e, 0x73, 0x3e, 0xea, 0x6a, 0x79, 0x3e, 0xee, 0x52, 0x47, 0xbf,
  0x5a, 0x2d, 0x56, 0xbf, 0x15, 0xbf, 0x87, 0xbc, 0x78, 0x7b, 0xcd, 0xbe,
  0x03, 0xd4, 0x8c, 0xbf, 0x40, 0xbe, 0xcb, 0xbe, 0xb1, 0x74, 0x7c, 0x3d,
  0x8b, 0xff, 0x74, 0x3e, 0x24, 0x12, 0xe8, 0x3e, 0xb5, 0x5d, 0xeb, 0xbe,
  0xde, 0x61, 0xaf, 0x3e, 0x1c, 0x2e, 0x32, 0x3e, 0xd9, 0x8c, 0x2d, 0xbe,
  0xa5, 0x67, 0x29, 0x3d, 0x6d, 0x5b, 0xb1, 0xbe, 0x32, 0x7d, 0x80, 0xbe,
  0x41, 0xc8, 0xab, 0xbb, 0xea, 0x49, 0xd4, 0x3e, 0xee, 0xbe, 0xa8, 0xbe,
  0x8b, 0xd5, 0xe5, 0x3d, 0xdc, 0xfc, 0xbc, 0xbe, 0xe5, 0xc1, 0x4c, 0xbd,
  0xbe, 0x90, 0x75, 0x3f, 0xae, 0x36, 0xd4, 0x3d, 0x1c, 0x6b, 0xd1, 0xbd,
  0xe1, 0x76, 0xef, 0xbe, 0x58, 0x88, 0xc7, 0xbd, 0x21, 0x98, 0x26, 0x3f,
  0xd1, 0x62, 0xf8, 0xbe, 0xe1, 0x7d, 0xb8, 0x3d, 0xa1, 0xbe, 0x21, 0xbe,
  0x94, 0x27, 0xe7, 0x3e, 0xdd, 0x4d, 0x91, 0xbc, 0xe1, 0xb5, 0x35, 0x3e,
  0x2a, 0x9e, 0x53, 0x3e, 0x7f, 0xb1, 0x69, 0x3e, 0x36, 0x21, 0x0c, 0x3e,
  0xa8, 0xa2, 0x87, 0xbe, 0x9f, 0x92, 0x33, 0xbf, 0x62, 0xa0, 0x9c, 0x3e,
  0xc5, 0x11, 0x85, 0xbf, 0x28, 0x72, 0xc5, 0x3d, 0x41, 0x6b, 0x7f, 0x3d,
  0xf7, 0xa5, 0x16, 0x3e, 0xe1, 0x14, 0x52, 0xbd, 0xa5, 0x9f, 0xd7, 0x3d,
  0x0d, 0x83, 0x2f, 0x3e, 0xff, 0xf9, 0x37, 0x3e, 0x57, 0xae, 0x0c, 0xbe,
  0x8c, 0x67, 0xb5, 0x3e, 0x31, 0xd9, 0xdb, 0x3d, 0x49, 0x7c, 0x3a, 0x3f,
  0xdd, 0x24, 0x14, 0xbf, 0x18, 0x76, 0x4f, 0xbe, 0x4e, 0xa2, 0xc7, 0x3e,
  0x8a, 0x4e, 0x3f, 0x3e, 0xb0, 0x15, 0xb3, 0xbf, 0x13, 0x54, 0x78, 0xbe,
  0x26, 0x34, 0xaf, 0x3e, 0x6d, 0xbb, 0xb4, 0x3e, 0x78, 0x1a, 0x0b, 0xbf,
  0x00, 0x58, 0xee, 0x3a, 0x79, 0xd7, 0x9e, 0x3e, 0x10, 0xce, 0xfe, 0xbd,
  0x20, 0xec, 0x80, 0xbe, 0xed, 0xc2, 0x2d, 0x3e, 0xa1, 0xb8, 0x8d, 0x3d,
  0x9d, 0x4f, 0xb1, 0x3e, 0xb2, 0x06, 0x94, 0x3e, 0x24, 0xc9, 0x6d, 0xbc,
  0xff, 0x65, 0x68, 0x3e, 0x48, 0xee, 0x41, 0x3e, 0xa3, 0x3a, 0x24, 0xbf,
  0x53, 0xd2, 0x36, 0xbf, 0xcf, 0x20, 0x11, 0xbf, 0x92, 0xeb, 0x9f, 0xbe,
  0x2a, 0x9a, 0x03, 0x3e, 0xf3, 0x94, 0x85, 0xbe, 0x55, 0x4e, 0x23, 0xbe,
  0x8a, 0xfb, 0x31, 0xbf, 0x85, 0x90, 0xf6, 0xbc, 0x60, 0xe8, 0xf5, 0xbe,
  0x37, 0x9e, 0x94, 0xbe, 0x2c, 0xf9, 0xff, 0xff, 0x30, 0xf9, 0xff, 0xff,
  0x0f, 0x00, 0x00, 0x00, 0x4d, 0x4c, 0x49, 0x52, 0x20, 0x43, 0x6f, 0x6e,
  0x76, 0x65, 0x72, 0x74, 0x65, 0x64, 0x2e, 0x00, 0x01, 0x00, 0x00, 0x00,
  0x14, 0x00, 0x00, 0x00, 0x00, 0x00, 0x0e, 0x00, 0x18, 0x00, 0x14, 0x00,
  0x10, 0x00, 0x0c, 0x00, 0x08, 0x00, 0x04, 0x00, 0x0e, 0x00, 0x00, 0x00,
  0x14, 0x00, 0x00, 0x00, 0x1c, 0x00, 0x00, 0x00, 0x5c, 0x01, 0x00, 0x00,
  0x60, 0x01, 0x00, 0x00, 0x64, 0x01, 0x00, 0x00, 0x04, 0x00, 0x00, 0x00,
  0x6d, 0x61, 0x69, 0x6e, 0x00, 0x00, 0x00, 0x00, 0x05, 0x00, 0x00, 0x00,
  0x04, 0x01, 0x00, 0x00, 0xbc, 0x00, 0x00, 0x00, 0x84, 0x00, 0x00, 0x00,
  0x50, 0x00, 0x00, 0x00, 0x14, 0x00, 0x00, 0x00, 0x00, 0x00, 0x0e, 0x00,
  0x1a, 0x00, 0x14, 0x00, 0x10, 0x00, 0x0c, 0x00, 0x0b, 0x00, 0x04, 0x00,
  0x0e, 0x00, 0x00, 0x00, 0x1c, 0x00, 0x00, 0x00, 0x00, 0x00, 0x00, 0x09,
  0x1c, 0x00, 0x00, 0x00, 0x20, 0x00, 0x00, 0x00, 0x01, 0x00, 0x00, 0x00,
  0x00, 0x00, 0x06, 0x00, 0x08, 0x00, 0x04, 0x00, 0x06, 0x00, 0x00, 0x00,
  0x00, 0x00, 0x80, 0x3f, 0x01, 0x00, 0x00, 0x00, 0x0d, 0x00, 0x00, 0x00,
  0x01, 0x00, 0x00, 0x00, 0x0c, 0x00, 0x00, 0x00, 0x66, 0xff, 0xff, 0xff,
  0x10, 0x00, 0x00, 0x00, 0x00, 0x00, 0x00, 0x08, 0x0c, 0x00, 0x00, 0x00,
  0x10, 0x00, 0x00, 0x00, 0xf8, 0xf9, 0xff, 0xff, 0x01, 0x00, 0x00, 0x00,
  0x0c, 0x00, 0x00, 0x00, 0x03, 0x00, 0x00, 0x00, 0x0b, 0x00, 0x00, 0x00,
  0x01, 0x00, 0x00, 0x00, 0x04, 0x00, 0x00, 0x00, 0x96, 0xff, 0xff, 0xff,
  0x10, 0x00, 0x00, 0x00, 0x00, 0x00, 0x00, 0x08, 0x10, 0x00, 0x00, 0x00,
  0x14, 0x00, 0x00, 0x00, 0x86, 0xff, 0xff, 0xff, 0x00, 0x00, 0x00, 0x01,
  0x01, 0x00, 0x00, 0x00, 0x0b, 0x00, 0x00, 0x00, 0x03, 0x00, 0x00, 0x00,
  0x0a, 0x00, 0x00, 0x00, 0x02, 0x00, 0x00, 0x00, 0x05, 0x00, 0x00, 0x00,
  0xca, 0xff, 0xff, 0xff, 0x10, 0x00, 0x00, 0x00, 0x00, 0x00, 0x00, 0x08,
  0x10, 0x00, 0x00, 0x00, 0x14, 0x00, 0x00, 0x00, 0xba, 0xff, 0xff, 0xff,
  0x00, 0x00, 0x00, 0x01, 0x01, 0x00, 0x00, 0x00, 0x0a, 0x00, 0x00, 0x00,
  0x03, 0x00, 0x00, 0x00, 0x09, 0x00, 0x00, 0x00, 0x03, 0x00, 0x00, 0x00,
  0x06, 0x00, 0x00, 0x00, 0x00, 0x00, 0x0e, 0x00, 0x16, 0x00, 0x00, 0x00,
  0x10, 0x00, 0x0c, 0x00, 0x0b, 0x00, 0x04, 0x00, 0x0e, 0x00, 0x00, 0x00,
  0x18, 0x00, 0x00, 0x00, 0x00, 0x00, 0x00, 0x08, 0x18, 0x00, 0x00, 0x00,
  0x1c, 0x00, 0x00, 0x00, 0x00, 0x00, 0x06, 0x00, 0x08, 0x00, 0x07, 0x00,
  0x06, 0x00, 0x00, 0x00, 0x00, 0x00, 0x00, 0x01, 0x01, 0x00, 0x00, 0x00,
  0x09, 0x00, 0x00, 0x00, 0x03, 0x00, 0x00, 0x00, 0x00, 0x00, 0x00, 0x00,
  0x08, 0x00, 0x00, 0x00, 0x07, 0x00, 0x00, 0x00, 0x01, 0x00, 0x00, 0x00,
  0x0d, 0x00, 0x00, 0x00, 0x01, 0x00, 0x00, 0x00, 0x00, 0x00, 0x00, 0x00,
  0x0e, 0x00, 0x00, 0x00, 0xfc, 0x04, 0x00, 0x00, 0xa4, 0x04, 0x00, 0x00,
  0x4c, 0x04, 0x00, 0x00, 0x0c, 0x04, 0x00, 0x00, 0xd0, 0x03, 0x00, 0x00,
  0x94, 0x03, 0x00, 0x00, 0x3c, 0x03, 0x00, 0x00, 0xe8, 0x02, 0x00, 0x00,
  0x9c, 0x02, 0x00, 0x00, 0x0c, 0x02, 0x00, 0x00, 0x74, 0x01, 0x00, 0x00,
  0xdc, 0x00, 0x00, 0x00, 0x60, 0x00, 0x00, 0x00, 0x04, 0x00, 0x00, 0x00,
  0x52, 0xfb, 0xff, 0xff, 0x00, 0x00, 0x00, 0x01, 0x14, 0x00, 0x00, 0x00,
  0x1c, 0x00, 0x00, 0x00, 0x1c, 0x00, 0x00, 0x00, 0x0e, 0x00, 0x00, 0x00,
  0x34, 0x00, 0x00, 0x00, 0x02, 0x00, 0x00, 0x00, 0xff, 0xff, 0xff, 0xff,
  0x03, 0x00, 0x00, 0x00, 0x3c, 0xfb, 0xff, 0xff, 0x1b, 0x00, 0x00, 0x00,
  0x53, 0x74, 0x61, 0x74, 0x65, 0x66, 0x75, 0x6c, 0x50, 0x61, 0x72, 0x74,
  0x69, 0x74, 0x69, 0x6f, 0x6e, 0x65, 0x64, 0x43, 0x61, 0x6c, 0x6c, 0x5f,
  0x31, 0x3a, 0x30, 0x00, 0x02, 0x00, 0x00, 0x00, 0x01, 0x00, 0x00, 0x00,
  0x03, 0x00, 0x00, 0x00, 0xaa, 0xfb, 0xff, 0xff, 0x00, 0x00, 0x00, 0x01,
  0x14, 0x00, 0x00, 0x00, 0x1c, 0x00, 0x00, 0x00, 0x1c, 0x00, 0x00, 0x00,
  0x0d, 0x00, 0x00, 0x00, 0x54, 0x00, 0x00, 0x00, 0x02, 0x00, 0x00, 0x00,
  0xff, 0xff, 0xff, 0xff, 0x03, 0x00, 0x00, 0x00, 0x94, 0xfb, 0xff, 0xff,
  0x38, 0x00, 0x00, 0x00, 0x73, 0x65, 0x71, 0x75, 0x65, 0x6e, 0x74, 0x69,
  0x61, 0x6c, 0x5f, 0x31, 0x2f, 0x64, 0x65, 0x6e, 0x73, 0x65, 0x5f, 0x33,
  0x5f, 0x31, 0x2f, 0x4d, 0x61, 0x74, 0x4d, 0x75, 0x6c, 0x3b, 0x73, 0x65,
  0x71, 0x75, 0x65, 0x6e, 0x74, 0x69, 0x61, 0x6c, 0x5f, 0x31, 0x2f, 0x64,
  0x65, 0x6e, 0x73, 0x65, 0x5f, 0x33, 0x5f, 0x31, 0x2f, 0x41, 0x64, 0x64,
  0x00, 0x00, 0x00, 0x00, 0x02, 0x00, 0x00, 0x00, 0x01, 0x00, 0x00, 0x00,
  0x03, 0x00, 0x00, 0x00, 0x22, 0xfc, 0xff, 0xff, 0x00, 0x00, 0x00, 0x01,
  0x14, 0x00, 0x00, 0x00, 0x1c, 0x00, 0x00, 0x00, 0x1c, 0x00, 0x00, 0x00,
  0x0c, 0x00, 0x00, 0x00, 0x70, 0x00, 0x00, 0x00, 0x02, 0x00, 0x00, 0x00,
  0xff, 0xff, 0xff, 0xff, 0x40, 0x00, 0x00, 0x00, 0x0c, 0xfc, 0xff, 0xff,
  0x54, 0x00, 0x00, 0x00, 0x73, 0x65, 0x71, 0x75, 0x65, 0x6e, 0x74, 0x69,
  0x61, 0x6c, 0x5f, 0x31, 0x2f, 0x64, 0x65, 0x6e, 0x73, 0x65, 0x5f, 0x32,
  0x5f, 0x31, 0x2f, 0x4d, 0x61, 0x74, 0x4d, 0x75, 0x6c, 0x3b, 0x73, 0x65,
  0x71, 0x75, 0x65, 0x6e, 0x74, 0x69, 0x61, 0x6c, 0x5f, 0x31, 0x2f, 0x64,
  0x65, 0x6e, 0x73, 0x65, 0x5f, 0x32, 0x5f, 0x31, 0x2f, 0x52, 0x65, 0x6c,
  0x75, 0x3b, 0x73, 0x65, 0x71, 0x75, 0x65, 0x6e, 0x74, 0x69, 0x61, 0x6c,
  0x5f, 0x31, 0x2f, 0x64, 0x65, 0x6e, 0x73, 0x65, 0x5f, 0x32, 0x5f, 0x31,
  0x2f, 0x41, 0x64, 0x64, 0x00, 0x00, 0x00, 0x00, 0x02, 0x00, 0x00, 0x00,
  0x01, 0x00, 0x00, 0x00, 0x40, 0x00, 0x00, 0x00, 0xb6, 0xfc, 0xff, 0xff,
  0x00, 0x00, 0x00, 0x01, 0x14, 0x00, 0x00, 0x00, 0x1c, 0x00, 0x00, 0x00,
  0x1c, 0x00, 0x00, 0x00, 0x0b, 0x00, 0x00, 0x00, 0x70, 0x00, 0x00, 0x00,
  0x02, 0x00, 0x00, 0x00, 0xff, 0xff, 0xff, 0xff, 0x20, 0x00, 0x00, 0x00,
  0xa0, 0xfc, 0xff, 0xff, 0x54, 0x00, 0x00, 0x00, 0x73, 0x65, 0x71, 0x75,
  0x65, 0x6e, 0x74, 0x69, 0x61, 0x6c, 0x5f, 0x31, 0x2f, 0x64, 0x65, 0x6e,
  0x73, 0x65, 0x5f, 0x31, 0x5f, 0x32, 0x2f, 0x4d, 0x61, 0x74, 0x4d, 0x75,
  0x6c, 0x3b, 0x73, 0x65, 0x71, 0x75, 0x65, 0x6e, 0x74, 0x69, 0x61, 0x6c,
  0x5f, 0x31, 0x2f, 0x64, 0x65, 0x6e, 0x73, 0x65, 0x5f, 0x31, 0x5f, 0x32,
  0x2f, 0x52, 0x65, 0x6c, 0x75, 0x3b, 0x73, 0x65, 0x71, 0x75, 0x65, 0x6e,
  0x74, 0x69, 0x61, 0x6c, 0x5f, 0x31, 0x2f, 0x64, 0x65, 0x6e, 0x73, 0x65,
  0x5f, 0x31, 0x5f, 0x32, 0x2f, 0x41, 0x64, 0x64, 0x00, 0x00, 0x00, 0x00,
  0x02, 0x00, 0x00, 0x00, 0x01, 0x00, 0x00, 0x00, 0x20, 0x00, 0x00, 0x00,
  0x4a, 0xfd, 0xff, 0xff, 0x00, 0x00, 0x00, 0x01, 0x14, 0x00, 0x00, 0x00,
  0x1c, 0x00, 0x00, 0x00, 0x1c, 0x00, 0x00, 0x00, 0x0a, 0x00, 0x00, 0x00,
  0x68, 0x00, 0x00, 0x00, 0x02, 0x00, 0x00, 0x00, 0xff, 0xff, 0xff, 0xff,
  0x10, 0x00, 0x00, 0x00, 0x34, 0xfd, 0xff, 0xff, 0x4e, 0x00, 0x00, 0x00,
  0x73, 0x65, 0x71, 0x75, 0x65, 0x6e, 0x74, 0x69, 0x61, 0x6c, 0x5f, 0x31,
  0x2f, 0x64, 0x65, 0x6e, 0x73, 0x65, 0x5f, 0x31, 0x2f, 0x4d, 0x61, 0x74,
  0x4d, 0x75, 0x6c, 0x3b, 0x73, 0x65, 0x71, 0x75, 0x65, 0x6e, 0x74, 0x69,
  0x61, 0x6c, 0x5f, 0x31, 0x2f, 0x64, 0x65, 0x6e, 0x73, 0x65, 0x5f, 0x31,
  0x2f, 0x52, 0x65, 0x6c, 0x75, 0x3b, 0x73, 0x65, 0x71, 0x75, 0x65, 0x6e,
  0x74, 0x69, 0x61, 0x6c, 0x5f, 0x31, 0x2f, 0x64, 0x65, 0x6e, 0x73, 0x65,
  0x5f, 0x31, 0x2f, 0x41, 0x64, 0x64, 0x00, 0x00, 0x02, 0x00, 0x00, 0x00,
  0x01, 0x00, 0x00, 0x00, 0x10, 0x00, 0x00, 0x00, 0x2a, 0xfe, 0xff, 0xff,
  0x00, 0x00, 0x00, 0x01, 0x10, 0x00, 0x00, 0x00, 0x10, 0x00, 0x00, 0x00,
  0x09, 0x00, 0x00, 0x00, 0x28, 0x00, 0x00, 0x00, 0xb0, 0xfd, 0xff, 0xff,
  0x1b, 0x00, 0x00, 0x00, 0x73, 0x65, 0x71, 0x75, 0x65, 0x6e, 0x74, 0x69,
  0x61, 0x6c, 0x5f, 0x31, 0x2f, 0x64, 0x65, 0x6e, 0x73, 0x65, 0x5f, 0x31,
  0x2f, 0x4d, 0x61, 0x74, 0x4d, 0x75, 0x6c, 0x00, 0x02, 0x00, 0x00, 0x00,
  0x10, 0x00, 0x00, 0x00, 0x05, 0x00, 0x00, 0x00, 0x72, 0xfe, 0xff, 0xff,
  0x00, 0x00, 0x00, 0x01, 0x10, 0x00, 0x00, 0x00, 0x10, 0x00, 0x00, 0x00,
  0x08, 0x00, 0x00, 0x00, 0x34, 0x00, 0x00, 0x00, 0xf8, 0xfd, 0xff, 0xff,
  0x27, 0x00, 0x00, 0x00, 0x73, 0x65, 0x71, 0x75, 0x65, 0x6e, 0x74, 0x69,
  0x61, 0x6c, 0x5f, 0x31, 0x2f, 0x64, 0x65, 0x6e, 0x73, 0x65, 0x5f, 0x31,
  0x2f, 0x41, 0x64, 0x64, 0x2f, 0x52, 0x65, 0x61, 0x64, 0x56, 0x61, 0x72,
  0x69, 0x61, 0x62, 0x6c, 0x65, 0x4f, 0x70, 0x00, 0x01, 0x00, 0x00, 0x00,
  0x10, 0x00, 0x00, 0x00, 0xc2, 0xfe, 0xff, 0xff, 0x00, 0x00, 0x00, 0x01,
  0x10, 0x00, 0x00, 0x00, 0x10, 0x00, 0x00, 0x00, 0x07, 0x00, 0x00, 0x00,
  0x38, 0x00, 0x00, 0x00, 0x48, 0xfe, 0xff, 0xff, 0x29, 0x00, 0x00, 0x00,
  0x73, 0x65, 0x71, 0x75, 0x65, 0x6e, 0x74, 0x69, 0x61, 0x6c, 0x5f, 0x31,
  0x2f, 0x64, 0x65, 0x6e, 0x73, 0x65, 0x5f, 0x31, 0x5f, 0x32, 0x2f, 0x41,
  0x64, 0x64, 0x2f, 0x52, 0x65, 0x61, 0x64, 0x56, 0x61, 0x72, 0x69, 0x61,
  0x62, 0x6c, 0x65, 0x4f, 0x70, 0x00, 0x00, 0x00, 0x01, 0x00, 0x00, 0x00,
  0x20, 0x00, 0x00, 0x00, 0x16, 0xff, 0xff, 0xff, 0x00, 0x00, 0x00, 0x01,
  0x10, 0x00, 0x00, 0x00, 0x10, 0x00, 0x00, 0x00, 0x06, 0x00, 0x00, 0x00,
  0x1c, 0x00, 0x00, 0x00, 0x9c, 0xfe, 0xff, 0xff, 0x0f, 0x00, 0x00, 0x00,
  0x61, 0x72, 0x69, 0x74, 0x68, 0x2e, 0x63, 0x6f, 0x6e, 0x73, 0x74, 0x61,
  0x6e, 0x74, 0x34, 0x00, 0x01, 0x00, 0x00, 0x00, 0x40, 0x00, 0x00, 0x00,
  0x4e, 0xff, 0xff, 0xff, 0x00, 0x00, 0x00, 0x01, 0x10, 0x00, 0x00, 0x00,
  0x10, 0x00, 0x00, 0x00, 0x05, 0x00, 0x00, 0x00, 0x1c, 0x00, 0x00, 0x00,
  0xd4, 0xfe, 0xff, 0xff, 0x0f, 0x00, 0x00, 0x00, 0x61, 0x72, 0x69, 0x74,
  0x68, 0x2e, 0x63, 0x6f, 0x6e, 0x73, 0x74, 0x61, 0x6e, 0x74, 0x33, 0x00,
  0x01, 0x00, 0x00, 0x00, 0x03, 0x00, 0x00, 0x00, 0x86, 0xff, 0xff, 0xff,
  0x00, 0x00, 0x00, 0x01, 0x10, 0x00, 0x00, 0x00, 0x10, 0x00, 0x00, 0x00,
  0x04, 0x00, 0x00, 0x00, 0x1c, 0x00, 0x00, 0x00, 0x0c, 0xff, 0xff, 0xff,
  0x0f, 0x00, 0x00, 0x00, 0x61, 0x72, 0x69, 0x74, 0x68, 0x2e, 0x63, 0x6f,
  0x6e, 0x73, 0x74, 0x61, 0x6e, 0x74, 0x32, 0x00, 0x02, 0x00, 0x00, 0x00,
  0x20, 0x00, 0x00, 0x00, 0x10, 0x00, 0x00, 0x00, 0xc2, 0xff, 0xff, 0xff,
  0x00, 0x00, 0x00, 0x01, 0x10, 0x00, 0x00, 0x00, 0x10, 0x00, 0x00, 0x00,
  0x03, 0x00, 0x00, 0x00, 0x1c, 0x00, 0x00, 0x00, 0x48, 0xff, 0xff, 0xff,
  0x0f, 0x00, 0x00, 0x00, 0x61, 0x72, 0x69, 0x74, 0x68, 0x2e, 0x63, 0x6f,
  0x6e, 0x73, 0x74, 0x61, 0x6e, 0x74, 0x31, 0x00, 0x02, 0x00, 0x00, 0x00,
  0x40, 0x00, 0x00, 0x00, 0x20, 0x00, 0x00, 0x00, 0x00, 0x00, 0x16, 0x00,
  0x18, 0x00, 0x14, 0x00, 0x00, 0x00, 0x10, 0x00, 0x0c, 0x00, 0x08, 0x00,
  0x00, 0x00, 0x00, 0x00, 0x00, 0x00, 0x07, 0x00, 0x16, 0x00, 0x00, 0x00,
  0x00, 0x00, 0x00, 0x01, 0x10, 0x00, 0x00, 0x00, 0x10, 0x00, 0x00, 0x00,
  0x02, 0x00, 0x00, 0x00, 0x1c, 0x00, 0x00, 0x00, 0x9c, 0xff, 0xff, 0xff,
  0x0e, 0x00, 0x00, 0x00, 0x61, 0x72, 0x69, 0x74, 0x68, 0x2e, 0x63, 0x6f,
  0x6e, 0x73, 0x74, 0x61, 0x6e, 0x74, 0x00, 0x00, 0x02, 0x00, 0x00, 0x00,
  0x03, 0x00, 0x00, 0x00, 0x40, 0x00, 0x00, 0x00, 0x00, 0x00, 0x16, 0x00,
  0x1c, 0x00, 0x18, 0x00, 0x00, 0x00, 0x14, 0x00, 0x10, 0x00, 0x0c, 0x00,
  0x00, 0x00, 0x00, 0x00, 0x08, 0x00, 0x07, 0x00, 0x16, 0x00, 0x00, 0x00,
  0x00, 0x00, 0x00, 0x01, 0x14, 0x00, 0x00, 0x00, 0x20, 0x00, 0x00, 0x00,
  0x20, 0x00, 0x00, 0x00, 0x01, 0x00, 0x00, 0x00, 0x3c, 0x00, 0x00, 0x00,
  0x02, 0x00, 0x00, 0x00, 0xff, 0xff, 0xff, 0xff, 0x05, 0x00, 0x00, 0x00,
  0x04, 0x00, 0x04, 0x00, 0x04, 0x00, 0x00, 0x00, 0x1d, 0x00, 0x00, 0x00,
  0x73, 0x65, 0x72, 0x76, 0x69, 0x6e, 0x67, 0x5f, 0x64, 0x65, 0x66, 0x61,
  0x75, 0x6c, 0x74, 0x5f, 0x69, 0x6e, 0x70, 0x75, 0x74, 0x5f, 0x6c, 0x61,
  0x79, 0x65, 0x72, 0x3a, 0x30, 0x00, 0x00, 0x00, 0x02, 0x00, 0x00, 0x00,
  0x01, 0x00, 0x00, 0x00, 0x05, 0x00, 0x00, 0x00, 0x02, 0x00, 0x00, 0x00,
  0x20, 0x00, 0x00, 0x00, 0x04, 0x00, 0x00, 0x00, 0xf4, 0xff, 0xff, 0xff,
  0x19, 0x00, 0x00, 0x00, 0x00, 0x00, 0x00, 0x19, 0x0c, 0x00, 0x0c, 0x00,
  0x0b, 0x00, 0x00, 0x00, 0x00, 0x00, 0x04, 0x00, 0x0c, 0x00, 0x00, 0x00,
  0x09, 0x00, 0x00, 0x00, 0x00, 0x00, 0x00, 0x09
};
static unsigned int  model_tflite_len = 14240;
#endif
