#ifndef MODEL_XT_H
#define MODEL_XT_H

static unsigned char model_tflite[] = {
  0x1c, 0x00, 0x00, 0x00, 0x54, 0x46, 0x4c, 0x33, 0x14, 0x00, 0x20, 0x00,
  0x1c, 0x00, 0x18, 0x00, 0x14, 0x00, 0x10, 0x00, 0x0c, 0x00, 0x00, 0x00,
  0x08, 0x00, 0x04, 0x00, 0x14, 0x00, 0x00, 0x00, 0x1c, 0x00, 0x00, 0x00,
  0x94, 0x00, 0x00, 0x00, 0xec, 0x00, 0x00, 0x00, 0xfc, 0x2e, 0x00, 0x00,
  0x0c, 0x2f, 0x00, 0x00, 0xf8, 0x35, 0x00, 0x00, 0x03, 0x00, 0x00, 0x00,
  0x01, 0x00, 0x00, 0x00, 0x10, 0x00, 0x00, 0x00, 0x00, 0x00, 0x0a, 0x00,
  0x10, 0x00, 0x0c, 0x00, 0x08, 0x00, 0x04, 0x00, 0x0a, 0x00, 0x00, 0x00,
  0x0c, 0x00, 0x00, 0x00, 0x1c, 0x00, 0x00, 0x00, 0x3c, 0x00, 0x00, 0x00,
  0x0f, 0x00, 0x00, 0x00, 0x73, 0x65, 0x72, 0x76, 0x69, 0x6e, 0x67, 0x5f,
  0x64, 0x65, 0x66, 0x61, 0x75, 0x6c, 0x74, 0x00, 0x01, 0x00, 0x00, 0x00,
  0x04, 0x00, 0x00, 0x00, 0x94, 0xff, 0xff, 0xff, 0x0d, 0x00, 0x00, 0x00,
  0x04, 0x00, 0x00, 0x00, 0x08, 0x00, 0x00, 0x00, 0x6f, 0x75, 0x74, 0x70,
  0x75, 0x74, 0x5f, 0x30, 0x00, 0x00, 0x00, 0x00, 0x01, 0x00, 0x00, 0x00,
  0x04, 0x00, 0x00, 0x00, 0xe6, 0xd0, 0xff, 0xff, 0x04, 0x00, 0x00, 0x00,
  0x0b, 0x00, 0x00, 0x00, 0x69, 0x6e, 0x70, 0x75, 0x74, 0x5f, 0x6c, 0x61,
  0x79, 0x65, 0x72, 0x00, 0x02, 0x00, 0x00, 0x00, 0x34, 0x00, 0x00, 0x00,
  0x04, 0x00, 0x00, 0x00, 0xdc, 0xff, 0xff, 0xff, 0x10, 0x00, 0x00, 0x00,
  0x04, 0x00, 0x00, 0x00, 0x13, 0x00, 0x00, 0x00, 0x43, 0x4f, 0x4e, 0x56,
  0x45, 0x52, 0x53, 0x49, 0x4f, 0x4e, 0x5f, 0x4d, 0x45, 0x54, 0x41, 0x44,
  0x41, 0x54, 0x41, 0x00, 0x08, 0x00, 0x0c, 0x00, 0x08, 0x00, 0x04, 0x00,
  0x08, 0x00, 0x00, 0x00, 0x0f, 0x00, 0x00, 0x00, 0x04, 0x00, 0x00, 0x00,
  0x13, 0x00, 0x00, 0x00, 0x6d, 0x69, 0x6e, 0x5f, 0x72, 0x75, 0x6e, 0x74,
  0x69, 0x6d, 0x65, 0x5f, 0x76, 0x65, 0x72, 0x73, 0x69, 0x6f, 0x6e, 0x00,
  0x11, 0x00, 0x00, 0x00, 0x0c, 0x2e, 0x00, 0x00, 0x04, 0x2e, 0x00, 0x00,
  0xf4, 0x2b, 0x00, 0x00, 0xe4, 0x0b, 0x00, 0x00, 0xd4, 0x03, 0x00, 0x00,
  0xbc, 0x03, 0x00, 0x00, 0xac, 0x02, 0x00, 0x00, 0x1c, 0x02, 0x00, 0x00,
  0xcc, 0x01, 0x00, 0x00, 0xbc, 0x00, 0x00, 0x00, 0xb4, 0x00, 0x00, 0x00,
  0xac, 0x00, 0x00, 0x00, 0xa4, 0x00, 0x00, 0x00, 0x9c, 0x00, 0x00, 0x00,
  0x94, 0x00, 0x00, 0x00, 0x74, 0x00, 0x00, 0x00, 0x04, 0x00, 0x00, 0x00,
  0xa2, 0xd1, 0xff, 0xff, 0x04, 0x00, 0x00, 0x00, 0x60, 0x00, 0x00, 0x00,
  0x10, 0x00, 0x00, 0x00, 0x00, 0x00, 0x00, 0x00, 0x08, 0x00, 0x0e, 0x00,
  0x08, 0x00, 0x04, 0x00, 0x08, 0x00, 0x00, 0x00, 0x10, 0x00, 0x00, 0x00,
  0x24, 0x00, 0x00, 0x00, 0x00, 0x00, 0x06, 0x00, 0x08, 0x00, 0x04, 0x00,
  0x06, 0x00, 0x00, 0x00, 0x04, 0x00, 0x00, 0x00, 0x00, 0x00, 0x00, 0x00,
  0x0c, 0x00, 0x18, 0x00, 0x14, 0x00, 0x10, 0x00, 0x0c, 0x00, 0x04, 0x00,
  0x0c, 0x00, 0x00, 0x00, 0x22, 0x7f, 0x2c, 0x73, 0x92, 0x21, 0x97, 0xa1,
  0x02, 0x00, 0x00, 0x00, 0x02, 0x00, 0x00, 0x00, 0x04, 0x00, 0x00, 0x00,
  0x06, 0x00, 0x00, 0x00, 0x32, 0x2e, 0x31, 0x38, 0x2e, 0x30, 0x00, 0x00,
  0x0e, 0xd2, 0xff, 0xff, 0x04, 0x00, 0x00, 0x00, 0x10, 0x00, 0x00, 0x00,
  0x31, 0x2e, 0x35, 0x2e, 0x30, 0x00, 0x00, 0x00, 0x00, 0x00, 0x00, 0x00,
  0x00, 0x00, 0x00, 0x00, 0xf0, 0xcb, 0xff, 0xff, 0xf4, 0xcb, 0xff, 0xff,
  0xf8, 0xcb, 0xff, 0xff, 0xfc, 0xcb, 0xff, 0xff, 0x00, 0xcc, 0xff, 0xff,
  0x3e, 0xd2, 0xff, 0xff, 0x04, 0x00, 0x00, 0x00, 0x00, 0x01, 0x00, 0x00,
  0xb2, 0x55, 0xd1, 0x3c, 0x5f, 0x40, 0x01, 0xbf, 0xf4, 0x06, 0xba, 0xbe,
  0xa3, 0xc1, 0xaf, 0xbe, 0x38, 0x12, 0xec, 0xbe, 0x1e, 0x4a, 0xe0, 0x3e,
  0x87, 0x3b, 0x76, 0x3e, 0xac, 0xfa, 0xc9, 0xbe, 0xcf, 0xd3, 0xf8, 0xbe,
  0x76, 0xd3, 0x41, 0x3e, 0x7c, 0x72, 0x6a, 0xbb, 0x43, 0x90, 0xcd, 0xbe,
  0x46, 0x41, 0x02, 0x3e, 0xe7, 0x0e, 0x88, 0xbe, 0x94, 0xc0, 0x07, 0x3f,
  0x68, 0x44, 0x60, 0x3e, 0x16, 0x1c, 0x8c, 0x3e, 0x95, 0xec, 0x99, 0xbe,
  0x3c, 0xb8, 0x2a, 0xbe, 0x53, 0x0e, 0xc6, 0x3e, 0x21, 0xc5, 0x41, 0x3e,
  0x2a, 0xc9, 0xfd, 0x3d, 0x10, 0x09, 0x72, 0xbe, 0x45, 0x23, 0x91, 0x3e,
  0x9f, 0x4a, 0x48, 0xbe, 0xc4, 0xb4, 0xd9, 0x3d, 0x73, 0xa4, 0xa8, 0xbd,
  0x3c, 0x61, 0x99, 0x3e, 0xfa, 0xde, 0x6b, 0xbe, 0xb2, 0x87, 0x67, 0x3e,
  0xad, 0x83, 0xd3, 0xbd, 0xb0, 0x01, 0x13, 0xbe, 0xe0, 0x38, 0xe9, 0x3e,
  0xbe, 0xef, 0xc7, 0x3e, 0x80, 0xe8, 0x2e, 0x3e, 0x29, 0x87, 0x83, 0xbe,
  0xdb, 0x1d, 0x69, 0xbe, 0xbc, 0x2a, 0xbf, 0xbe, 0xc9, 0x3b, 0x00, 0x3f,
  0xfc, 0x0a, 0x2f, 0xbf, 0xf5, 0x46, 0x10, 0x3e, 0x8f, 0xd9, 0x29, 0x3e,
  0x54, 0x77, 0xa1, 0x3d, 0xa8, 0xec, 0x0e, 0x3f, 0xfd, 0xfa, 0xfc, 0x3e,
  0x20, 0xb8, 0x08, 0xbe, 0xc0, 0xd3, 0x17, 0x3c, 0x8e, 0x66, 0x4e, 0x3d,
  0xba, 0x25, 0x14, 0x3e, 0x06, 0xd9, 0x8c, 0xbd, 0xd7, 0x32, 0x25, 0x3f,
  0x7a, 0xf1, 0xad, 0xbe, 0xa8, 0x9b, 0xcd, 0x3e, 0x2a, 0x5e, 0xe1, 0xbe,
  0x32, 0xbd, 0x0d, 0x3e, 0xc1, 0xb7, 0xf5, 0xbe, 0xf7, 0xa8, 0x59, 0xbe,
  0xea, 0xf8, 0x25, 0xbd, 0xc6, 0x69, 0xc8, 0xbe, 0x26, 0x21, 0xf3, 0x3e,
  0x41, 0x20, 0x56, 0xbd, 0x95, 0xac, 0x2a, 0x3e, 0x24, 0xf2, 0xb7, 0xbe,
  0xd1, 0xe8, 0xeb, 0x3e, 0x4a, 0xd3, 0xff, 0xff, 0x04, 0x00, 0x00, 0x00,
  0x40, 0x00, 0x00, 0x00, 0xbf, 0xb3, 0xd1, 0x3d, 0x3d, 0x76, 0xbf, 0xbd,
  0xc7, 0x34, 0xb3, 0x3d, 0x10, 0xc1, 0xbf, 0xbc, 0x49, 0x1e, 0xf2, 0xbc,
  0x20, 0x7c, 0x8d, 0x3d, 0xfa, 0x1c, 0xa6, 0x3d, 0xe1, 0x9b, 0x65, 0x3d,
  0xd2, 0xcd, 0x52, 0x3c, 0xd6, 0x34, 0x02, 0x3e, 0x9c, 0x1f, 0xe2, 0x3c,
  0x98, 0x2f, 0x10, 0x3d, 0xd3, 0x11, 0xc1, 0x3d, 0x55, 0xca, 0x54, 0x3d,
  0x89, 0x23, 0xc5, 0x3d, 0xd9, 0x00, 0xa0, 0x3d, 0x96, 0xd3, 0xff, 0xff,
  0x04, 0x00, 0x00, 0x00, 0x80, 0x00, 0x00, 0x00, 0x91, 0xe8, 0x92, 0x3d,
  0x64, 0x98, 0x0b, 0xbc, 0x0e, 0x20, 0x6f, 0x3d, 0x70, 0x15, 0xb3, 0x3d,
  0xe5, 0x0d, 0xa8, 0x3d, 0x86, 0x6e, 0xfb, 0x3d, 0x00, 0x55, 0x3d, 0x3d,
  0x96, 0x6e, 0x39, 0xbd, 0xb3, 0x0a, 0xae, 0x3d, 0xce, 0x99, 0xff, 0x3d,
  0x6e, 0xed, 0xb7, 0x3d, 0x0f, 0x0f, 0x01, 0x3e, 0x9f, 0xac, 0x09, 0x3e,
  0x82, 0x2e, 0x16, 0x3d, 0xf6, 0xe6, 0x7c, 0x3d, 0x2a, 0xc8, 0xbe, 0x3c,
  0x12, 0xf2, 0xa2, 0x3d, 0x1a, 0xf5, 0x4d, 0x3c, 0x87, 0x31, 0xab, 0x3d,
  0xc4, 0xe8, 0x8b, 0x3d, 0xa1, 0x2b, 0x19, 0x3c, 0x07, 0x29, 0x8c, 0x3d,
  0xb4, 0xf0, 0xb6, 0x3c, 0x16, 0x84, 0xc3, 0x3d, 0x7b, 0x8e, 0xac, 0x3d,
  0x8b, 0x56, 0xd4, 0x3d, 0x1f, 0x67, 0x20, 0x3d, 0x32, 0x79, 0xb1, 0xbc,
  0xea, 0x4b, 0xfa, 0xbc, 0x00, 0xf1, 0xba, 0x3d, 0x2a, 0xc4, 0x8a, 0x3d,
  0x56, 0xfc, 0xa5, 0x3d, 0x22, 0xd4, 0xff, 0xff, 0x04, 0x00, 0x00, 0x00,
  0x00, 0x01, 0x00, 0x00, 0x3a, 0x61, 0x64, 0x3d, 0x22, 0xd3, 0xa9, 0xbb,
  0x3c, 0x60, 0x53, 0x3d, 0xcc, 0x7d, 0xc9, 0xbb, 0x08, 0xc9, 0xea, 0x3d,
  0xa7, 0x50, 0x5a, 0xbd, 0x4b, 0xa8, 0x40, 0xbd, 0x61, 0xc6, 0xdd, 0x3d,
  0x84, 0x10, 0x3d, 0xbd, 0xaa, 0x42, 0x8a, 0xbc, 0x5d, 0x90, 0x92, 0xbc,
  0x00, 0x00, 0x00, 0x00, 0xbd, 0x48, 0x0c, 0x3d, 0x55, 0x60, 0x04, 0xbd,
  0xe9, 0xde, 0x83, 0xbb, 0xdd, 0x44, 0x80, 0x3b, 0xf5, 0x77, 0x8f, 0x3d,
  0xcb, 0x27, 0xbe, 0x3d, 0xb2, 0x38, 0x81, 0x3d, 0x06, 0x75, 0xee, 0x3d,
  0x62, 0xaf, 0xb7, 0xbc, 0x00, 0x00, 0x00, 0x00, 0x0c, 0xd6, 0xda, 0x3c,
  0x30, 0x31, 0x92, 0x3d, 0x1c, 0x79, 0x17, 0xbd, 0xcf, 0x5f, 0x7a, 0x3d,
  0xa8, 0x93, 0x3d, 0xbc, 0x38, 0x78, 0x9b, 0x3b, 0x39, 0x45, 0x85, 0x3d,
  0x34, 0xa3, 0xbd, 0x3d, 0x67, 0xca, 0xc0, 0x3d, 0xa4, 0x9e, 0x9b, 0x3d,
  0x0d, 0x85, 0xa1, 0x3d, 0x6a, 0x01, 0xec, 0x3d, 0x9a, 0x74, 0xc1, 0x3d,
  0xe8, 0x6b, 0x7e, 0x3d, 0xa9, 0x22, 0x3c, 0xbd, 0x0a, 0xbf, 0x93, 0x3d,
  0x8d, 0x49, 0x9b, 0x3d, 0xcb, 0x46, 0x91, 0xbc, 0x32, 0x60, 0xcd, 0xbc,
  0xec, 0x57, 0x7e, 0x3d, 0xb2, 0x24, 0x42, 0xbd, 0xf7, 0x27, 0x5d, 0x3d,
  0x07, 0x86, 0xd8, 0x3d, 0x48, 0x04, 0x33, 0xbd, 0x63, 0xfa, 0x8b, 0xbc,
  0xd1, 0x06, 0x08, 0xbc, 0x93, 0x14, 0xb5, 0x3c, 0x05, 0xa1, 0xe5, 0xbc,
  0x7b, 0x12, 0xf8, 0xbc, 0x45, 0x16, 0x93, 0x3d, 0x0f, 0x0c, 0xeb, 0xbc,
  0x96, 0x31, 0xb8, 0x3d, 0xb3, 0x78, 0xf7, 0xbc, 0x05, 0x08, 0xc0, 0xbc,
  0xe6, 0x9d, 0x27, 0xbc, 0xc6, 0xf4, 0x77, 0x3c, 0xde, 0x9b, 0x34, 0xbd,
  0xd9, 0x61, 0x01, 0xbd, 0xdc, 0x3e, 0xc2, 0x3d, 0x6a, 0x38, 0xa6, 0xbc,
  0xb4, 0xc7, 0xaf, 0x3d, 0x08, 0xd8, 0xb7, 0x3d, 0x2e, 0xd5, 0xff, 0xff,
  0x04, 0x00, 0x00, 0x00, 0x08, 0x00, 0x00, 0x00, 0xae, 0x70, 0x80, 0x3d,
  0xad, 0x70, 0x80, 0xbd, 0x42, 0xd5, 0xff, 0xff, 0x04, 0x00, 0x00, 0x00,
  0x00, 0x08, 0x00, 0x00, 0x23, 0x6b, 0xc1, 0x3d, 0x7f, 0x9d, 0x4b, 0xbc,
  0x25, 0x14, 0x36, 0xbc, 0x84, 0x4b, 0x50, 0xbe, 0x53, 0x91, 0x50, 0xbe,
  0xf1, 0x91, 0xcc, 0xbd, 0x2c, 0xd2, 0x97, 0xbe, 0x78, 0xdd, 0xa2, 0xbe,
  0xbc, 0x30, 0xcd, 0x3e, 0xf7, 0x38, 0xbe, 0x3e, 0x1d, 0xdc, 0x07, 0xbe,
  0x4e, 0x42, 0x39, 0x3e, 0x1a, 0x69, 0xc5, 0x3e, 0xb1, 0x81, 0x8b, 0x3c,
  0xd3, 0xc6, 0x3e, 0x3e, 0x58, 0xd7, 0x25, 0xbe, 0x59, 0x11, 0x99, 0xbd,
  0x6c, 0x68, 0x9d, 0x3e, 0x8d, 0x6b, 0xa3, 0x3e, 0x4c, 0x49, 0xa6, 0xbe,
  0xf0, 0x7c, 0x12, 0x3e, 0x54, 0xf2, 0x40, 0x3e, 0x1f, 0x75, 0x88, 0x3d,
  0x76, 0x89, 0x96, 0xbd, 0x08, 0x3e, 0x1f, 0x3e, 0xa5, 0x5a, 0x37, 0x3d,
  0xf7, 0x8d, 0x80, 0x3e, 0x7c, 0x4b, 0x19, 0x3e, 0x25, 0x4b, 0x89, 0xbe,
  0x42, 0x99, 0xce, 0xbd, 0x58, 0x1f, 0x88, 0xbe, 0xba, 0x31, 0x71, 0xbc,
  0x97, 0xa9, 0x9e, 0x3c, 0x10, 0x0d, 0x8f, 0x3e, 0x0b, 0x2e, 0x65, 0x3e,
  0xb9, 0xaf, 0x9f, 0x3e, 0x9f, 0x7e, 0x31, 0x3d, 0x2b, 0x55, 0x91, 0xbe,
  0xeb, 0x03, 0x4e, 0xbe, 0xbd, 0x66, 0x5d, 0xbe, 0x72, 0x14, 0x6d, 0xbe,
  0xcb, 0x30, 0xbb, 0x3e, 0xa9, 0x22, 0x08, 0x3b, 0x4a, 0x72, 0x95, 0xbe,
  0x01, 0xf4, 0xb5, 0x3e, 0x64, 0x29, 0x36, 0xbe, 0xca, 0x91, 0x00, 0x3e,
  0xfb, 0xac, 0x8b, 0x3e, 0x27, 0x4a, 0x9a, 0x3e, 0xd5, 0x89, 0xc4, 0x3d,
  0xad, 0x3b, 0x30, 0x3e, 0xbb, 0x3c, 0x30, 0x3e, 0xbd, 0x66, 0x0e, 0xbe,
  0x15, 0x53, 0x2d, 0x3e, 0x8c, 0x61, 0x20, 0xbe, 0x06, 0xac, 0x38, 0xbe,
  0x09, 0xf1, 0x49, 0xbe, 0xbf, 0xcb, 0x95, 0x3e, 0xbe, 0x1d, 0x45, 0xbe,
  0x8d, 0xe0, 0x6b, 0x3e, 0x08, 0x61, 0xb8, 0xbd, 0x69, 0x9b, 0xd3, 0xbd,
  0x01, 0xdc, 0xfa, 0xbd, 0xb2, 0x61, 0x20, 0x3d, 0x07, 0x69, 0xc4, 0xbd,
  0x6e, 0x89, 0x86, 0x3e, 0x14, 0x52, 0x15, 0xbd, 0x5c, 0x9a, 0x10, 0x3e,
  0x51, 0xc2, 0x8c, 0x3d, 0x91, 0xe9, 0x88, 0x3e, 0xd7, 0xd5, 0xa8, 0xbd,
  0xbc, 0x4d, 0xcd, 0x3e, 0x48, 0x3a, 0x8f, 0xbd, 0x85, 0xc6, 0x05, 0x3e,
  0x54, 0xb6, 0xb7, 0xbd, 0x76, 0x55, 0x27, 0xbe, 0x14, 0x88, 0x7b, 0x3e,
  0xd3, 0xa7, 0xbe, 0x3e, 0x6b, 0xaa, 0xc3, 0xbe, 0x3c, 0x2e, 0xce, 0x3c,
  0x81, 0xb7, 0x65, 0x3e, 0x9c, 0x2b, 0x1e, 0xbe, 0x53, 0x42, 0x37, 0x3e,
  0xb3, 0xd8, 0x23, 0xbe, 0xa8, 0xe9, 0x01, 0x3e, 0xbf, 0x2b, 0x00, 0x3e,
  0x4c, 0x03, 0xa6, 0x3d, 0x7b, 0xef, 0x9c, 0x3e, 0x14, 0xbd, 0x50, 0x3d,
  0xea, 0x61, 0x9a, 0x3e, 0xf6, 0x06, 0x5d, 0xbe, 0xfc, 0x59, 0x20, 0xbd,
  0x22, 0xca, 0x6a, 0xbd, 0xba, 0x0e, 0x62, 0x3e, 0x6e, 0xc9, 0xf5, 0xbd,
  0xee, 0x37, 0xe0, 0xbd, 0xfa, 0xce, 0xa8, 0x3d, 0x69, 0x69, 0xad, 0x3d,
  0xb2, 0x39, 0x0f, 0xbe, 0xa5, 0x10, 0xa4, 0x3e, 0x6b, 0x44, 0x8d, 0xbe,
  0x44, 0x6e, 0x1a, 0xbe, 0xb5, 0x7b, 0xaa, 0x3d, 0xbe, 0xa7, 0xb2, 0xbe,
  0x5a, 0x82, 0x27, 0xbe, 0x6c, 0x35, 0x96, 0x3e, 0x0e, 0x05, 0x6a, 0x3e,
  0x1a, 0x08, 0x8f, 0xbd, 0xd2, 0x10, 0x35, 0xbe, 0xac, 0xac, 0x74, 0x3e,
  0xe9, 0x9e, 0x06, 0x3e, 0x46, 0x83, 0xad, 0x3c, 0x56, 0x28, 0x96, 0xbe,
  0x13, 0xae, 0x84, 0x3e, 0xe9, 0xfc, 0x99, 0xbe, 0x10, 0xef, 0x84, 0x3e,
  0x5f, 0x00, 0xbc, 0x3d, 0x06, 0x08, 0x40, 0x3e, 0x98, 0x67, 0xbe, 0xbe,
  0x3d, 0x58, 0x82, 0xbe, 0xb5, 0x99, 0x99, 0xbd, 0x30, 0x09, 0x77, 0xbc,
  0x13, 0x34, 0x80, 0xbe, 0xbc, 0x2e, 0xd6, 0x3d, 0x87, 0x0f, 0x85, 0x3e,
  0x28, 0xdd, 0x63, 0x3e, 0x0c, 0x57, 0x7d, 0x3d, 0x63, 0x87, 0x33, 0x3e,
  0x6a, 0xe6, 0xcb, 0x3e, 0xc8, 0xb5, 0x2a, 0x3e, 0xfa, 0x6d, 0x80, 0x3d,
  0x7a, 0x9b, 0xac, 0xbe, 0xe4, 0x1b, 0xb4, 0x3e, 0xff, 0x5e, 0xf0, 0x3e,
  0x5b, 0x47, 0x05, 0xbc, 0x6d, 0xbe, 0x2f, 0x3e, 0xea, 0x72, 0xa8, 0xbe,
  0xda, 0xa7, 0xbb, 0xbe, 0x0d, 0x94, 0x55, 0x3d, 0x05, 0xbe, 0x40, 0x3e,
  0x6c, 0x42, 0xe2, 0xbe, 0xb7, 0x45, 0x4d, 0xbd, 0x07, 0x76, 0x9b, 0x3d,
  0x99, 0x82, 0xc8, 0x3e, 0x94, 0xe4, 0x93, 0xbc, 0x24, 0xf0, 0x1e, 0x3d,
  0x87, 0x9b, 0xb5, 0x3e, 0x90, 0xc6, 0x60, 0x3e, 0x13, 0xc6, 0x14, 0x3d,
  0xc1, 0x17, 0xb3, 0x3e, 0x61, 0xb4, 0xcd, 0x3e, 0x80, 0x1a, 0xc4, 0x3d,
  0x39, 0xd4, 0x84, 0x3e, 0xd3, 0xf2, 0xbd, 0x3c, 0x03, 0x8d, 0xd1, 0x3d,
  0x1c, 0xdf, 0x46, 0x3e, 0x87, 0x6f, 0xb4, 0x3d, 0xae, 0x2e, 0xfb, 0xbc,
  0x19, 0x59, 0xe0, 0x3c, 0x4a, 0xcd, 0x27, 0xbc, 0xff, 0x1c, 0x3a, 0xbe,
  0x6b, 0x0b, 0x7c, 0xbe, 0x13, 0x50, 0x15, 0xbd, 0xca, 0x0b, 0xec, 0x3d,
  0x75, 0x46, 0x9c, 0xbe, 0x38, 0x25, 0x1e, 0x3e, 0x34, 0x0b, 0x4b, 0xbd,
  0x08, 0x30, 0xab, 0xbd, 0x8e, 0x3e, 0x7f, 0x3e, 0xdd, 0xe1, 0xe2, 0x3e,
  0x1f, 0xae, 0x5c, 0xbd, 0xb3, 0x99, 0x67, 0x3e, 0x4f, 0x65, 0xf1, 0xbd,
  0x37, 0x22, 0xe1, 0x3d, 0x08, 0xd0, 0x1e, 0x3d, 0xb1, 0x29, 0x91, 0xbe,
  0x91, 0x09, 0xcc, 0x3d, 0x2b, 0x88, 0xe1, 0x3c, 0x06, 0xff, 0x9b, 0x3e,
  0xcf, 0x10, 0xe8, 0xbd, 0xf4, 0x6a, 0x57, 0xbe, 0x69, 0x32, 0x40, 0xbd,
  0x88, 0x46, 0x84, 0xbe, 0x0d, 0xaf, 0x31, 0xbe, 0x73, 0xfb, 0x4c, 0x3d,
  0x40, 0xab, 0xab, 0x3e, 0x61, 0x9b, 0x7e, 0x3b, 0x88, 0x85, 0x64, 0x3d,
  0x8d, 0xa8, 0x34, 0xbe, 0x37, 0x71, 0xc7, 0xbd, 0xed, 0x29, 0x84, 0x3e,
  0xba, 0xb6, 0xc3, 0xbe, 0xa9, 0x4a, 0xd1, 0x3e, 0x71, 0x8f, 0x7f, 0xbe,
  0xf6, 0x9d, 0x2e, 0xbe, 0x6e, 0xf1, 0x79, 0xbd, 0x88, 0xdb, 0xa6, 0xbe,
  0x8e, 0xdd, 0xf5, 0xbd, 0x90, 0x12, 0x26, 0x3e, 0x7d, 0x3f, 0x29, 0xbe,
  0xde, 0x4c, 0x45, 0x3e, 0x36, 0xcc, 0xb5, 0x3e, 0xbf, 0xcf, 0x88, 0xbe,
  0xbb, 0xfb, 0x58, 0xbe, 0x77, 0x4b, 0x5f, 0xbe, 0xff, 0x3e, 0x87, 0x3e,
  0x07, 0x13, 0x82, 0xbe, 0x0f, 0xc8, 0x45, 0x3e, 0xce, 0xda, 0x0b, 0x3e,
  0x58, 0x3b, 0x8d, 0x3e, 0xdd, 0x81, 0x37, 0xbd, 0x23, 0x19, 0xd9, 0x3e,
  0x7a, 0x35, 0xb4, 0x3d, 0x5d, 0x57, 0xc7, 0xbe, 0xfd, 0x7b, 0x68, 0xbe,
  0x64, 0xea, 0x43, 0x3e, 0x75, 0x77, 0x47, 0x3d, 0xa7, 0x1c, 0x45, 0x3e,
  0x04, 0x84, 0x02, 0x3e, 0x8a, 0xb6, 0x99, 0xbc, 0xff, 0x1e, 0x52, 0x3e,
  0xe7, 0x37, 0x17, 0x3e, 0x70, 0x30, 0x02, 0xbe, 0xdd, 0xa2, 0x20, 0xbe,
  0x1b, 0x07, 0xc5, 0x3e, 0x57, 0x90, 0xa2, 0xbe, 0x91, 0x54, 0x17, 0xbe,
  0x74, 0xf5, 0x64, 0x3d, 0xd8, 0x34, 0x91, 0x3c, 0x77, 0x68, 0xfe, 0x3e,
  0x25, 0xa2, 0xf6, 0x3d, 0xe8, 0xad, 0xed, 0x3d, 0x10, 0xf8, 0xdc, 0xbd,
  0x2f, 0xd7, 0xbd, 0xbe, 0x79, 0xc3, 0x93, 0xbd, 0x08, 0x5f, 0xc3, 0x3e,
  0xd8, 0x63, 0x03, 0x3e, 0x69, 0x7d, 0x33, 0xbd, 0xb0, 0x6d, 0x72, 0x3e,
  0xfa, 0xbf, 0x4d, 0xbe, 0x42, 0xee, 0xd2, 0x3e, 0x26, 0x06, 0x6a, 0xbe,
  0x5b, 0x1d, 0xc6, 0x3d, 0xbf, 0x59, 0x92, 0x3d, 0x5a, 0xb5, 0x5c, 0x3d,
  0xb1, 0xea, 0x06, 0x3d, 0xa7, 0xea, 0xd0, 0xbd, 0x44, 0x8c, 0x41, 0x3f,
  0xcc, 0x01, 0x2d, 0xbe, 0x95, 0xe6, 0x79, 0xbe, 0x8c, 0x47, 0x0d, 0x3e,
  0x64, 0xd0, 0x21, 0xbd, 0x44, 0x15, 0x84, 0xbe, 0x4c, 0x51, 0x46, 0x3d,
  0xda, 0x1f, 0xef, 0x3d, 0x35, 0x47, 0x3d, 0x3d, 0x6b, 0xe7, 0x9f, 0x3d,
  0x81, 0xb0, 0x78, 0xbe, 0x73, 0x55, 0x46, 0x3e, 0x9e, 0x4a, 0x7f, 0xbe,
  0xe4, 0x67, 0x53, 0x3e, 0x4c, 0x34, 0x04, 0xbe, 0x03, 0x93, 0xc1, 0x3d,
  0xe9, 0xa8, 0xa9, 0x3e, 0x96, 0x54, 0xdb, 0x3e, 0x97, 0xea, 0x85, 0x3e,
  0x9a, 0xb9, 0x96, 0x3e, 0x72, 0xeb, 0xa5, 0x3e, 0x0f, 0x1c, 0x41, 0x3e,
  0x60, 0xde, 0x28, 0xbe, 0x19, 0x1b, 0xf2, 0xbd, 0xd8, 0x7d, 0x1d, 0x3e,
  0xdd, 0x9a, 0xb5, 0x3e, 0xc6, 0x8d, 0xb2, 0xbd, 0xb8, 0x88, 0xa3, 0x3e,
  0x0a, 0x24, 0x0f, 0x3d, 0x84, 0xf5, 0x21, 0x3d, 0x5c, 0xb2, 0x68, 0x3e,
  0x2e, 0x97, 0x46, 0x3e, 0xa2, 0x85, 0x44, 0xbe, 0xc0, 0x05, 0x53, 0x3e,
  0xbf, 0x75, 0x34, 0x3e, 0xdb, 0x20, 0xbd, 0x3e, 0x2f, 0x80, 0x5f, 0xbc,
  0xf3, 0xad, 0xf5, 0xbd, 0x62, 0xed, 0x54, 0xbe, 0x97, 0x50, 0xd7, 0x3e,
  0xba, 0x81, 0xa9, 0x3e, 0x77, 0x47, 0xde, 0x3e, 0xd0, 0x39, 0x94, 0xbd,
  0x62, 0x45, 0x10, 0x3e, 0xcf, 0x76, 0xdd, 0xbd, 0x5d, 0xbf, 0xb2, 0x3e,
  0xe5, 0x93, 0xcb, 0x3d, 0x40, 0x56, 0xbb, 0x3e, 0x95, 0x3c, 0x93, 0x3e,
  0x55, 0xe0, 0xca, 0xbd, 0xc3, 0xe6, 0xce, 0xbe, 0x25, 0x1a, 0xe5, 0x3d,
  0x81, 0xee, 0x0d, 0x3e, 0xae, 0x0b, 0x2d, 0xbe, 0x16, 0x22, 0xaf, 0x3d,
  0x1a, 0x36, 0x6b, 0x3e, 0xcd, 0x04, 0xc1, 0xbc, 0x1a, 0xba, 0x32, 0xbe,
  0x91, 0xf3, 0x70, 0xbe, 0xb9, 0x43, 0x89, 0x3e, 0xf6, 0xd6, 0x75, 0xbd,
  0x45, 0x73, 0xc7, 0x3e, 0x78, 0xa4, 0xbd, 0xbd, 0x91, 0xb0, 0xa0, 0x3e,
  0x62, 0x0d, 0x20, 0xbe, 0x55, 0x14, 0x81, 0x3d, 0x30, 0x06, 0xc0, 0xbe,
  0x8d, 0xf3, 0x1f, 0x3e, 0x95, 0x59, 0x45, 0x3e, 0xc9, 0x9d, 0x14, 0x3e,
  0xd2, 0xde, 0x91, 0x3e, 0xee, 0xec, 0xc9, 0x3c, 0x95, 0x50, 0x69, 0x3e,
  0xb0, 0x83, 0xb0, 0x3d, 0xb0, 0x5a, 0x34, 0x3e, 0x42, 0x28, 0xe9, 0x3d,
  0x68, 0x1d, 0x0b, 0xbe, 0x1e, 0xa3, 0x15, 0xbe, 0x74, 0x3c, 0x82, 0xbe,
  0x21, 0xdb, 0x90, 0xbe, 0xba, 0x82, 0x9a, 0xbd, 0xd6, 0x9c, 0x99, 0x3e,
  0xde, 0xc3, 0x53, 0xbe, 0xb1, 0x69, 0x9e, 0xbe, 0x73, 0x5a, 0x32, 0xbe,
  0xec, 0x8d, 0x50, 0x3e, 0xed, 0x6c, 0x7d, 0x3e, 0x06, 0xac, 0xf8, 0xbb,
  0xea, 0x79, 0xab, 0x3e, 0xbc, 0x99, 0xcf, 0x3e, 0x07, 0x7e, 0xa4, 0xbd,
  0xbe, 0xe7, 0xad, 0x3e, 0x7a, 0x3a, 0x6b, 0xbc, 0x5c, 0x6f, 0xc8, 0xbe,
  0x71, 0x51, 0x94, 0x3e, 0x12, 0xf6, 0xb3, 0x3d, 0xb8, 0x10, 0x3c, 0xbb,
  0xff, 0x42, 0xe6, 0x3e, 0x8d, 0x23, 0xb6, 0x3d, 0x37, 0x84, 0xca, 0xbe,
  0xbf, 0x24, 0xf4, 0x3c, 0x4a, 0x9d, 0xc2, 0x3e, 0x52, 0xc5, 0x09, 0xbe,
  0x66, 0x6c, 0x6c, 0x3d, 0xf5, 0x94, 0x7f, 0xbe, 0x33, 0x52, 0x1e, 0xbe,
  0xf7, 0x6f, 0xdf, 0x3d, 0xf0, 0x97, 0xa9, 0x3e, 0x5f, 0xc7, 0xc2, 0x3e,
  0x12, 0x94, 0x80, 0xbe, 0x31, 0xae, 0x82, 0x3e, 0x56, 0x76, 0x6c, 0xbe,
  0x67, 0xc0, 0x8e, 0xbe, 0xcd, 0x3f, 0x9d, 0xbd, 0x5f, 0x9d, 0x09, 0xbe,
  0x34, 0xc5, 0x52, 0xbe, 0x7c, 0x58, 0x97, 0x3e, 0x9d, 0x9d, 0xea, 0xbd,
  0x60, 0x52, 0x68, 0x3e, 0xe7, 0x15, 0x69, 0x3e, 0x26, 0x84, 0x91, 0xbe,
  0x7f, 0x51, 0xf1, 0x3d, 0x76, 0x7c, 0x1a, 0x3d, 0xbe, 0x4e, 0x0a, 0xbd,
  0xfe, 0x10, 0x6c, 0xbd, 0xa9, 0x73, 0xcf, 0x3e, 0x33, 0x20, 0x10, 0x3e,
  0x3c, 0x67, 0x0f, 0xbd, 0xd9, 0xa6, 0x3a, 0x3e, 0xf2, 0x32, 0x66, 0x3e,
  0xe8, 0x50, 0x96, 0xbe, 0xed, 0x83, 0x89, 0xbd, 0xb3, 0x08, 0xbe, 0x3e,
  0x84, 0x3d, 0x68, 0x3e, 0xb8, 0xf1, 0x49, 0xbd, 0xc6, 0x21, 0x9f, 0x3e,
  0x21, 0x49, 0xf0, 0xbc, 0xa8, 0x54, 0xfb, 0x3d, 0x33, 0x82, 0x68, 0xbe,
  0x89, 0x19, 0xad, 0x3e, 0x70, 0xf6, 0x31, 0x3d, 0xb8, 0xf2, 0x93, 0xbe,
  0xab, 0x38, 0xf1, 0xbd, 0x95, 0x91, 0xd1, 0x3d, 0xdb, 0x5f, 0x5d, 0x3e,
  0xf3, 0xc5, 0xed, 0x3e, 0xe2, 0x43, 0xd3, 0x3e, 0x35, 0x0e, 0x95, 0x3d,
  0x77, 0x79, 0x16, 0xbe, 0x2b, 0x6e, 0x8c, 0x3c, 0x73, 0x54, 0x11, 0x3e,
  0xd7, 0xdd, 0xd8, 0xbe, 0x54, 0x94, 0xd8, 0xbe, 0xd4, 0xc9, 0x38, 0x3e,
  0x9f, 0x92, 0x66, 0xbe, 0x4a, 0x9c, 0xc5, 0x3e, 0x2a, 0x49, 0x66, 0xbe,
  0x18, 0x25, 0xdd, 0x3e, 0x26, 0x68, 0xda, 0x3e, 0x4d, 0x60, 0xcc, 0x3e,
  0x44, 0x3d, 0x72, 0x3e, 0xab, 0xa5, 0xb3, 0xbe, 0x18, 0x84, 0x31, 0xbb,
  0x52, 0xaf, 0x54, 0xbd, 0xb5, 0xe0, 0x42, 0x3e, 0xcc, 0xb9, 0x98, 0xbe,
  0x7a, 0x30, 0x05, 0xbe, 0x33, 0x83, 0x3a, 0xbd, 0x61, 0xfe, 0x31, 0x3e,
  0x0b, 0x04, 0xc7, 0x3d, 0xd1, 0xc7, 0xfb, 0xbc, 0xd6, 0x43, 0x02, 0x3d,
  0x20, 0x83, 0xb6, 0xbe, 0x3e, 0xc8, 0x4c, 0x3d, 0xc5, 0x30, 0x04, 0x3e,
  0x48, 0x32, 0xef, 0x3d, 0xfc, 0x0f, 0xa6, 0x3c, 0x6b, 0x73, 0xd9, 0xbb,
  0x39, 0xfc, 0xc3, 0xbc, 0x9e, 0x24, 0xa3, 0x3d, 0xcb, 0x65, 0x1a, 0xbd,
  0xff, 0x69, 0x69, 0x3d, 0x18, 0xe4, 0x57, 0xbe, 0x0b, 0xee, 0xe7, 0x3d,
  0xa6, 0xb8, 0xaa, 0x3e, 0x05, 0x57, 0x28, 0x3e, 0x11, 0x0e, 0x78, 0xbe,
  0x60, 0x92, 0x44, 0xbe, 0x50, 0x0f, 0xb2, 0x3e, 0x44, 0xd5, 0x9c, 0x3e,
  0x5e, 0x63, 0x09, 0x3e, 0xea, 0xfe, 0x88, 0xbe, 0x98, 0x1b, 0x86, 0x3e,
  0xf2, 0xac, 0x17, 0x3e, 0x4b, 0xf9, 0x4c, 0xbd, 0xe4, 0x80, 0xb1, 0xbd,
  0x51, 0x6c, 0xf1, 0xbc, 0xe2, 0x86, 0xb0, 0xbe, 0xd1, 0xd8, 0x7d, 0x3d,
  0x53, 0x84, 0x92, 0xbd, 0x6a, 0x4e, 0xee, 0xbd, 0xe7, 0x0d, 0xad, 0xbe,
  0x43, 0x1c, 0x27, 0xbe, 0xb4, 0xde, 0xb9, 0xbe, 0xf7, 0x91, 0xbd, 0xbe,
  0x2a, 0x8d, 0x33, 0x3e, 0x34, 0x05, 0x96, 0x3e, 0xdf, 0xf0, 0xe9, 0x3c,
  0x19, 0x49, 0x4a, 0x3e, 0xd0, 0xee, 0x2c, 0xbe, 0x81, 0x2e, 0xae, 0x3d,
  0x94, 0xd2, 0x85, 0xbe, 0xbe, 0x57, 0x16, 0xbe, 0xfb, 0xc9, 0x8e, 0x3e,
  0x87, 0x58, 0xde, 0x3d, 0x27, 0x49, 0x8d, 0xbe, 0xf1, 0xfb, 0xe8, 0xbc,
  0x8d, 0xde, 0x0c, 0x3e, 0x89, 0x5f, 0x05, 0x3e, 0xb0, 0x22, 0xdd, 0x3d,
  0x78, 0xcb, 0x2f, 0x3e, 0x2e, 0xc5, 0x52, 0xbe, 0x1e, 0x4c, 0x9a, 0x3e,
  0x57, 0x5b, 0xaf, 0x3e, 0xb7, 0xd1, 0x8d, 0x3e, 0x65, 0x54, 0x5d, 0xbe,
  0x6f, 0x3f, 0xc9, 0xbe, 0x29, 0x78, 0x90, 0xbe, 0x71, 0xfc, 0x43, 0x3e,
  0x8d, 0x5e, 0x64, 0xbe, 0xcb, 0x4e, 0x6c, 0x3d, 0x6f, 0x2f, 0x3a, 0xbe,
  0x37, 0xef, 0x27, 0x3e, 0x3c, 0xee, 0x89, 0xbe, 0x8a, 0x22, 0xaf, 0x3e,
  0x55, 0xc3, 0xbc, 0x3e, 0x69, 0x70, 0x0a, 0x3d, 0x0f, 0x80, 0xaa, 0xbd,
  0x47, 0x7d, 0x7f, 0xbe, 0xba, 0x19, 0x2d, 0xbe, 0x6a, 0xe8, 0x36, 0xbe,
  0x71, 0x71, 0x2e, 0xbd, 0x54, 0xa5, 0xcd, 0x3e, 0xa2, 0x89, 0xb2, 0x3c,
  0x43, 0x28, 0x5b, 0xbe, 0x77, 0x86, 0x00, 0x3e, 0x79, 0xcf, 0x39, 0x3e,
  0x73, 0xdd, 0x48, 0xbe, 0x5b, 0x23, 0x10, 0x3e, 0x7d, 0x6f, 0x0b, 0xbe,
  0xa9, 0x89, 0x2c, 0xbc, 0x06, 0x8c, 0x2b, 0x3e, 0x92, 0xb7, 0x9b, 0x3e,
  0xae, 0x0d, 0x29, 0xbe, 0x9d, 0xf7, 0xd6, 0xbe, 0x5c, 0xa6, 0xe0, 0xbc,
  0x23, 0x50, 0x75, 0xbe, 0x8f, 0x67, 0x69, 0x3e, 0xea, 0xe3, 0x46, 0xbd,
  0x7f, 0x00, 0x36, 0x3e, 0x57, 0x53, 0x87, 0x3e, 0x4d, 0xbc, 0x9b, 0x3e,
  0xb4, 0xca, 0x48, 0x3c, 0xb1, 0xc2, 0xb6, 0xbd, 0x5e, 0x5f, 0x2c, 0xbe,
  0x4e, 0xdd, 0xff, 0xff, 0x04, 0x00, 0x00, 0x00, 0x00, 0x20, 0x00, 0x00,
  0x75, 0x1d, 0x8e, 0x3c, 0xe5, 0x5c, 0xe0, 0x3d, 0x16, 0xc6, 0x95, 0x3e,
  0x97, 0x5b, 0xa0, 0x3c, 0x00, 0xeb, 0x8e, 0x3c, 0x55, 0x60, 0x81, 0x3e,
  0xe3, 0xad, 0x87, 0x3c, 0x5e, 0x33, 0x19, 0x3e, 0xb3, 0xf7, 0x7e, 0xbe,
  0xc3, 0xeb, 0x18, 0x3e, 0x16, 0x86, 0xaa, 0x3e, 0x25, 0xde, 0x53, 0x3e,
  0x97, 0xe5, 0x27, 0x3e, 0x61, 0xa9, 0x25, 0xbd, 0x8b, 0xbd, 0x0d, 0xbe,
  0x0f, 0xd4, 0x25, 0xbd, 0xb2, 0x24, 0xba, 0x3d, 0x10, 0xc8, 0xc7, 0x3d,
  0x58, 0x2b, 0x6c, 0xbe, 0xd3, 0x8d, 0x21, 0xbe, 0x1d, 0x3f, 0x15, 0x3e,
  0xa8, 0x62, 0x93, 0x3e, 0x2f, 0x8c, 0xcf, 0xbd, 0xb6, 0x73, 0xdf, 0x3d,
  0x79, 0x6a, 0xf4, 0xbd, 0xcd, 0x2c, 0xfa, 0xbd, 0xce, 0x84, 0xd0, 0xbd,
  0xeb, 0x14, 0x16, 0xbe, 0xc6, 0x45, 0xed, 0xbc, 0x07, 0x8b, 0x28, 0xbd,
  0xb5, 0x1d, 0xdf, 0xbd, 0x8f, 0x94, 0x76, 0x3e, 0xe7, 0x8f, 0x89, 0x3e,
  0x70, 0x4e, 0x60, 0x3e, 0xc1, 0xe2, 0x05, 0xbe, 0x7f, 0xd9, 0x10, 0x3e,
  0x05, 0x9b, 0x86, 0x3e, 0x01, 0xf3, 0x23, 0x3e, 0x71, 0x4b, 0x9a, 0x3c,
  0x44, 0x34, 0x33, 0x3c, 0x0b, 0x50, 0xa2, 0x3d, 0x79, 0x4d, 0x8f, 0xbd,
  0x1f, 0x24, 0x5d, 0x3e, 0x2f, 0xf0, 0x54, 0x3d, 0x1f, 0x49, 0x93, 0x3e,
  0x3c, 0x27, 0xdd, 0xbd, 0x81, 0xda, 0xbc, 0xbd, 0x4e, 0x06, 0x35, 0xbe,
  0x20, 0x2a, 0xd6, 0x3d, 0xa2, 0x6b, 0xf1, 0xbd, 0xea, 0x6e, 0x68, 0x3d,
  0xc8, 0xb8, 0xe4, 0x3c, 0x10, 0x70, 0x96, 0x3d, 0x2a, 0x9d, 0x81, 0x3e,
  0xe8, 0x1b, 0x5b, 0x3e, 0x3a, 0xa5, 0x94, 0xbe, 0x81, 0x7f, 0x04, 0x3d,
  0xd7, 0x5f, 0x4a, 0xbe, 0xcc, 0xea, 0x24, 0x3e, 0xe3, 0x41, 0x52, 0xbe,
  0xee, 0x63, 0x95, 0x3d, 0x9a, 0x2d, 0x23, 0xbe, 0x3c, 0x0c, 0x56, 0x3e,
  0x47, 0xce, 0x2d, 0x3e, 0x02, 0x3a, 0x4f, 0x3e, 0x54, 0x4e, 0x5d, 0x3e,
  0x87, 0x5b, 0x8e, 0xbe, 0x6a, 0x15, 0x99, 0x3e, 0x74, 0x17, 0xd8, 0x3d,
  0x6c, 0x8f, 0xfc, 0x3c, 0xde, 0x1e, 0xe3, 0xbc, 0x2e, 0xe9, 0xef, 0x3d,
  0x42, 0xda, 0x63, 0xbd, 0xbb, 0x53, 0x66, 0xbe, 0x29, 0x6e, 0x02, 0xbe,
  0x6b, 0xbc, 0x59, 0xbe, 0x21, 0x5b, 0x34, 0xbd, 0x44, 0x4b, 0xe7, 0x3c,
  0xb8, 0xfe, 0xef, 0xbd, 0x3a, 0x1c, 0x55, 0x3d, 0xe4, 0xef, 0x9e, 0xbd,
  0xe0, 0xf9, 0xf6, 0xbd, 0xd3, 0x69, 0x6f, 0x3d, 0xb1, 0x03, 0x05, 0x3e,
  0xd0, 0x09, 0xbe, 0x3d, 0xfa, 0xbd, 0x22, 0x3e, 0xb6, 0x8b, 0xaa, 0x3d,
  0x00, 0x54, 0xdd, 0x3d, 0x72, 0x86, 0x33, 0xbe, 0xc2, 0xb7, 0x90, 0x3d,
  0x85, 0xce, 0x1b, 0xbe, 0x07, 0x42, 0xb0, 0xbd, 0xa6, 0xc5, 0x6e, 0xbe,
  0xfc, 0x40, 0x8a, 0x3c, 0x84, 0x02, 0xf9, 0xbc, 0x0d, 0x63, 0x8a, 0xbe,
  0x59, 0x1e, 0xea, 0x3d, 0x38, 0x1a, 0x69, 0xbe, 0xa8, 0x6f, 0x2e, 0x3e,
  0x5f, 0x7c, 0x77, 0x3d, 0xfa, 0x42, 0x02, 0x3e, 0xb1, 0xdf, 0x84, 0x3e,
  0x95, 0xf1, 0x2c, 0x3e, 0x3f, 0x51, 0x72, 0xbb, 0x6c, 0x7d, 0xe8, 0xbd,
  0x56, 0x77, 0x85, 0x3e, 0x47, 0x0b, 0x11, 0x3e, 0xf0, 0x10, 0x97, 0xbc,
  0x8b, 0x1b, 0x78, 0x3e, 0x31, 0xd1, 0x7f, 0x3e, 0x93, 0x70, 0x43, 0xbe,
  0x8b, 0x2b, 0x35, 0xbe, 0x8d, 0x59, 0xca, 0x3c, 0xd7, 0xba, 0x50, 0x3e,
  0x7e, 0x4e, 0x5a, 0xbe, 0x33, 0x85, 0xab, 0xbb, 0xb2, 0xfa, 0x3c, 0x3e,
  0x8b, 0x82, 0x83, 0x3d, 0x5a, 0xfc, 0x4f, 0x3c, 0x3e, 0xb8, 0xc7, 0x3d,
  0x84, 0xc6, 0x95, 0x3d, 0xa9, 0x5d, 0x90, 0xbe, 0x59, 0xe6, 0x29, 0xbe,
  0x5a, 0x3f, 0xaa, 0xbe, 0xc3, 0x30, 0x0f, 0xbe, 0xac, 0x8d, 0xda, 0xbd,
  0x6b, 0x84, 0x39, 0x3e, 0xe3, 0x7e, 0x80, 0x3e, 0x1c, 0x1c, 0x90, 0xbe,
  0xb7, 0xfa, 0xc1, 0xbc, 0xd0, 0x8b, 0x68, 0xbd, 0xda, 0x9a, 0xc8, 0xbd,
  0xb7, 0x9e, 0x8a, 0x3e, 0x31, 0x04, 0x0d, 0x3c, 0x2a, 0xae, 0x45, 0xbe,
  0x62, 0x09, 0x11, 0x3e, 0x7d, 0xd5, 0xc9, 0x3e, 0x62, 0x3e, 0xe8, 0xbd,
  0x65, 0x1c, 0xdf, 0x3c, 0x86, 0x81, 0xb4, 0xbe, 0xab, 0x2a, 0xad, 0x3d,
  0x08, 0x3b, 0x9d, 0x3d, 0xdd, 0x93, 0xd2, 0x3e, 0x3a, 0x7a, 0xc8, 0x3e,
  0x25, 0x5e, 0x5d, 0x3e, 0x02, 0x20, 0x35, 0x3e, 0xad, 0xbb, 0xf5, 0x3d,
  0x5b, 0x92, 0x9d, 0x3d, 0x11, 0x9b, 0x68, 0xbe, 0x3d, 0x45, 0x61, 0xbe,
  0xa2, 0x57, 0xf7, 0x3d, 0x84, 0xf0, 0x38, 0x3e, 0xfe, 0x7d, 0x76, 0x3d,
  0xe9, 0x4b, 0x4c, 0x3e, 0x6e, 0x38, 0x5a, 0x3e, 0x3c, 0x86, 0x4b, 0xbc,
  0x72, 0xec, 0x87, 0xbd, 0x5b, 0xae, 0x63, 0x3e, 0x4b, 0x5f, 0x37, 0x3e,
  0x30, 0x24, 0xb1, 0xbe, 0xd9, 0x97, 0x8c, 0xbe, 0x5e, 0x05, 0x85, 0xbe,
  0x71, 0x5b, 0xb9, 0x3d, 0xbc, 0x10, 0x1d, 0xbe, 0x1b, 0x14, 0xdc, 0xbc,
  0x04, 0x2a, 0x1e, 0xbe, 0x3e, 0x36, 0xf9, 0x3d, 0x7d, 0xba, 0x14, 0xbe,
  0x32, 0xf0, 0x5f, 0xbe, 0x9b, 0xfd, 0xf7, 0xbd, 0xf0, 0xb2, 0xf6, 0xbd,
  0xd2, 0x77, 0xdb, 0x3d, 0x09, 0x4d, 0x4e, 0x3e, 0xd8, 0x2f, 0x63, 0x3e,
  0xb3, 0x2f, 0xc7, 0x3d, 0x85, 0x62, 0x7b, 0xbd, 0x14, 0x9a, 0x71, 0xbe,
  0xad, 0xcb, 0x8d, 0x3e, 0x7a, 0x5e, 0x7f, 0x3e, 0xa8, 0x48, 0xf7, 0xbd,
  0x77, 0xf0, 0xe3, 0x3d, 0x55, 0x37, 0xd5, 0xbd, 0x8f, 0x7b, 0x10, 0x3d,
  0xde, 0x36, 0xf4, 0xbd, 0xe8, 0xbb, 0x22, 0xbe, 0x75, 0x02, 0xe3, 0x3c,
  0x27, 0xfb, 0x1b, 0xbe, 0xdd, 0x5e, 0x16, 0xbd, 0x03, 0xe1, 0x70, 0xbe,
  0xa4, 0xe8, 0x7f, 0x3e, 0xcc, 0x64, 0x8c, 0xbe, 0x54, 0xff, 0xb2, 0x3d,
  0xe1, 0xd5, 0x4a, 0x3e, 0x91, 0xf9, 0x06, 0x3e, 0xb5, 0x92, 0x40, 0x3d,
  0xeb, 0xe7, 0xca, 0x3d, 0x08, 0x7e, 0xf5, 0xbd, 0x09, 0xae, 0x1a, 0xbd,
  0x4c, 0xed, 0x23, 0xbe, 0x36, 0x1d, 0x19, 0x3b, 0xd0, 0x7f, 0xf8, 0x3d,
  0x37, 0x95, 0x21, 0x3e, 0xbf, 0x8e, 0x30, 0xbe, 0xcd, 0x02, 0xc9, 0x3d,
  0x46, 0x52, 0x8c, 0xbd, 0x0b, 0xb0, 0x3e, 0xbe, 0x50, 0x40, 0x09, 0xbe,
  0x02, 0xad, 0xcb, 0x3d, 0x3c, 0xbd, 0x93, 0xbd, 0x93, 0x20, 0xef, 0x3c,
  0x28, 0x94, 0x37, 0x3e, 0xe7, 0x3e, 0x37, 0x3e, 0xca, 0x08, 0x23, 0x3c,
  0xe1, 0xe5, 0x4a, 0x3e, 0x13, 0x9a, 0x8c, 0x3d, 0xc0, 0x1d, 0x78, 0xbd,
  0x55, 0x89, 0x5a, 0x3e, 0x14, 0x94, 0x55, 0xbe, 0x00, 0xa5, 0x54, 0xbe,
  0xfe, 0xfd, 0x93, 0xbd, 0xe6, 0x5d, 0x9e, 0x3c, 0x31, 0x68, 0x23, 0xbe,
  0x30, 0x08, 0x82, 0x3e, 0x51, 0xe7, 0x82, 0x3e, 0x10, 0x5a, 0x6b, 0xbe,
  0x13, 0x74, 0xb1, 0x3e, 0xa6, 0x0d, 0xd2, 0xbd, 0x36, 0x25, 0x5e, 0x3e,
  0x17, 0x9e, 0xb0, 0xbc, 0xd0, 0x1a, 0xd0, 0x3d, 0x83, 0x73, 0x80, 0x3c,
  0x0f, 0xf7, 0xca, 0xbd, 0x55, 0x96, 0x2a, 0x3e, 0x55, 0x97, 0x27, 0x3e,
  0x00, 0x7c, 0x91, 0x3b, 0xb2, 0x84, 0x5a, 0xbc, 0x0d, 0x32, 0x05, 0xbc,
  0x8a, 0x44, 0x26, 0xbe, 0x26, 0xc7, 0x92, 0x3d, 0xaf, 0x7b, 0x3b, 0x3d,
  0x46, 0xa2, 0x74, 0x3e, 0x45, 0x29, 0xea, 0xbb, 0x69, 0x50, 0xb9, 0x3e,
  0x22, 0x0c, 0x0e, 0xbe, 0x03, 0x73, 0x82, 0xbe, 0x2c, 0xc2, 0x07, 0xbe,
  0x29, 0x66, 0xa2, 0x3e, 0xe8, 0xc7, 0x1f, 0x3e, 0x5f, 0xf1, 0x8c, 0xbe,
  0xf2, 0xe9, 0x47, 0x3e, 0x1d, 0xb5, 0xb0, 0xbb, 0x44, 0x28, 0x11, 0xbc,
  0x20, 0xea, 0xbc, 0x3d, 0xd4, 0x49, 0xb0, 0xbd, 0x3c, 0x56, 0x35, 0x3e,
  0xac, 0x7f, 0x74, 0xbd, 0x9d, 0x53, 0xd5, 0xbd, 0x99, 0x3f, 0x4e, 0x3e,
  0x35, 0x7b, 0x8a, 0xbd, 0x12, 0xa2, 0x28, 0x3b, 0x3b, 0x32, 0x3e, 0xbe,
  0x31, 0xa7, 0x5f, 0xbe, 0x51, 0xda, 0x95, 0xbe, 0x82, 0xe2, 0x09, 0x3e,
  0xff, 0x52, 0x0a, 0x3e, 0xb9, 0x83, 0x21, 0xbe, 0x71, 0xaa, 0x81, 0x3c,
  0x54, 0x9f, 0x86, 0x3d, 0x60, 0x1d, 0x68, 0xbd, 0x43, 0xfa, 0x03, 0xbd,
  0x49, 0x02, 0x28, 0xbe, 0xc3, 0x02, 0x7d, 0x3d, 0x7d, 0xea, 0xb5, 0x3d,
  0x77, 0x2e, 0xc3, 0xbd, 0x06, 0x5a, 0x66, 0x3d, 0x85, 0x2f, 0x06, 0xbe,
  0xe4, 0xc1, 0xd1, 0x3d, 0x34, 0x4f, 0xc8, 0x3c, 0x17, 0x77, 0x45, 0xbe,
  0xd1, 0xee, 0x9a, 0x3d, 0xb6, 0x13, 0xf7, 0x3c, 0x4b, 0x0b, 0x1f, 0x3e,
  0xa2, 0xd2, 0x18, 0xbb, 0xf2, 0x8b, 0x06, 0xbe, 0x42, 0xbb, 0x03, 0xbe,
  0x68, 0xa2, 0xee, 0xbd, 0x2d, 0xa6, 0x65, 0xbe, 0xc8, 0x3a, 0x30, 0x3e,
  0xc7, 0xe8, 0x35, 0xbe, 0x37, 0xed, 0xc3, 0x3b, 0xb5, 0x23, 0x7d, 0x3c,
  0x9d, 0x06, 0x48, 0x3d, 0x50, 0x1d, 0xe4, 0x3d, 0x0b, 0x86, 0x7d, 0x3e,
  0x9a, 0x67, 0x06, 0xbe, 0x38, 0xb7, 0xe3, 0x3d, 0x16, 0x11, 0x71, 0x3d,
  0x74, 0xa4, 0xf2, 0xbd, 0x5b, 0xbf, 0x56, 0xbe, 0xc0, 0xc0, 0x98, 0xbd,
  0x81, 0x1b, 0xb7, 0x3d, 0x18, 0x03, 0x82, 0x3e, 0x32, 0x11, 0x3e, 0xbd,
  0x68, 0xe6, 0x40, 0x3e, 0xb6, 0xe6, 0x06, 0xbe, 0xf5, 0x3e, 0x1b, 0xbd,
  0x83, 0x0d, 0xa7, 0x3d, 0xfd, 0x99, 0x5e, 0xbd, 0xae, 0x92, 0x99, 0xbc,
  0x9d, 0xbc, 0x6d, 0xbd, 0xec, 0xad, 0x9c, 0x3c, 0x95, 0x79, 0x9d, 0xbd,
  0x57, 0xeb, 0x6e, 0x3c, 0x5d, 0x29, 0x1a, 0xbc, 0xf3, 0x96, 0x25, 0xbe,
  0xf0, 0x8f, 0x87, 0x3e, 0x60, 0x7e, 0xbc, 0xbd, 0x45, 0x25, 0xf2, 0x3c,
  0xf8, 0xe2, 0x91, 0xbe, 0xae, 0xb7, 0xf8, 0x3d, 0xf8, 0xf1, 0xea, 0xbd,
  0x24, 0x17, 0xf3, 0x3d, 0x87, 0x27, 0x60, 0x3e, 0xb8, 0x53, 0xf8, 0xbd,
  0x7d, 0x19, 0x46, 0xbe, 0xe0, 0xcf, 0x23, 0xbe, 0x6b, 0x2e, 0x68, 0xbe,
  0x8b, 0x6c, 0x48, 0xbe, 0x6b, 0xac, 0x48, 0xbe, 0xc2, 0x1e, 0xce, 0xbd,
  0x70, 0x52, 0xf6, 0x3d, 0x78, 0x84, 0x63, 0x3e, 0x00, 0x7f, 0x84, 0xbb,
  0x89, 0xa4, 0x5e, 0xbe, 0x50, 0xe0, 0x06, 0xbd, 0x00, 0x48, 0xa5, 0xbb,
  0x02, 0xa0, 0x05, 0xbe, 0xa2, 0x13, 0x9f, 0x3d, 0x6e, 0x19, 0x07, 0x3e,
  0x63, 0xf7, 0x28, 0xbe, 0x78, 0x61, 0x01, 0x3e, 0xfc, 0x78, 0x07, 0xbc,
  0x2c, 0x96, 0x65, 0xbe, 0xd1, 0x20, 0xc9, 0xbc, 0xbe, 0x6a, 0x65, 0xbd,
  0x3d, 0x51, 0xcc, 0x3d, 0x88, 0x65, 0xc7, 0x3c, 0x88, 0x3d, 0xd3, 0x3d,
  0x78, 0xf2, 0x65, 0x3e, 0xf3, 0x28, 0x35, 0xbd, 0x04, 0x37, 0xbf, 0xbd,
  0x41, 0x87, 0x80, 0x3d, 0x20, 0x01, 0xea, 0xbd, 0x70, 0x31, 0xfb, 0x3d,
  0xc8, 0x36, 0x0b, 0xbe, 0x04, 0x2b, 0x0f, 0xbe, 0x28, 0xd5, 0x96, 0xbd,
  0xcc, 0xb4, 0x4c, 0xbe, 0xd0, 0x30, 0x23, 0x3e, 0x38, 0xb4, 0xba, 0x3d,
  0xf0, 0x43, 0x1e, 0xbd, 0x3c, 0xb7, 0x59, 0xbe, 0x70, 0x9f, 0x57, 0xbd,
  0x60, 0xda, 0x0c, 0xbe, 0xf0, 0xa4, 0x51, 0x3e, 0x14, 0xd8, 0x40, 0xbe,
  0x20, 0xf3, 0x60, 0xbd, 0xbc, 0x7a, 0x2c, 0xbe, 0x40, 0xaf, 0xfb, 0xbc,
  0x94, 0x75, 0x2b, 0xbe, 0x28, 0xe9, 0x97, 0x3d, 0x10, 0x4a, 0x7d, 0xbd,
  0xf0, 0x64, 0x55, 0x3d, 0x00, 0x60, 0xf4, 0x39, 0x1c, 0xa0, 0x01, 0xbe,
  0xa0, 0x8e, 0xc7, 0xbc, 0x7c, 0xd1, 0x25, 0xbe, 0xb4, 0xe3, 0x7b, 0xbe,
  0x90, 0xf1, 0x62, 0xbd, 0x10, 0x62, 0x8c, 0xbd, 0x20, 0x38, 0xe1, 0xbc,
  0x80, 0x09, 0xb0, 0xbc, 0x34, 0x17, 0x42, 0xbe, 0xb0, 0xf8, 0x3b, 0xbe,
  0x75, 0x3b, 0x22, 0x3e, 0x9c, 0x9a, 0x4a, 0x3e, 0xe1, 0x62, 0xdd, 0xbd,
  0xfd, 0x4a, 0x75, 0xbd, 0xd4, 0x31, 0x54, 0xbe, 0x50, 0x41, 0x93, 0xbd,
  0x1c, 0x5b, 0x0f, 0xbc, 0x9d, 0xe6, 0x8c, 0x3d, 0x48, 0xf6, 0xa4, 0xbe,
  0xae, 0xbe, 0x15, 0x3e, 0xe7, 0x22, 0x21, 0xbe, 0x33, 0x45, 0x53, 0x3e,
  0xb0, 0x49, 0x88, 0x3e, 0xa3, 0x18, 0x07, 0x3e, 0xf6, 0x8c, 0x05, 0x3d,
  0xc8, 0x3b, 0x04, 0x3e, 0xc3, 0x24, 0x30, 0xbe, 0x75, 0x74, 0x6f, 0x3d,
  0x45, 0x69, 0x32, 0xbe, 0xf4, 0xea, 0x5e, 0x3c, 0x29, 0xd0, 0x69, 0x3e,
  0xba, 0xef, 0x64, 0x3e, 0x0a, 0x8d, 0x36, 0xbb, 0x95, 0x60, 0x99, 0xbc,
  0x21, 0x9c, 0x56, 0x3e, 0x5f, 0x82, 0x8c, 0x3d, 0x07, 0x10, 0xec, 0x3d,
  0xf7, 0x76, 0xcf, 0x3d, 0x2c, 0xa7, 0x0b, 0x3e, 0x54, 0xf6, 0x25, 0x3c,
  0xbd, 0xca, 0xa0, 0xbd, 0x9f, 0x83, 0x04, 0x3e, 0xaa, 0x62, 0x1d, 0x3e,
  0x61, 0xdc, 0x4e, 0x3e, 0x18, 0x48, 0x8e, 0x3c, 0x64, 0xc0, 0x4f, 0xbd,
  0xbe, 0xff, 0x19, 0xbd, 0x19, 0x2b, 0xe5, 0xbd, 0x3a, 0x19, 0x4a, 0xbe,
  0x2d, 0xfc, 0x28, 0xbe, 0x71, 0x08, 0x1d, 0x3e, 0x7f, 0x6b, 0xfc, 0xbd,
  0x6b, 0xc2, 0x34, 0x3e, 0xe0, 0x00, 0xe7, 0xbd, 0x7f, 0xed, 0x93, 0x3d,
  0xa4, 0x9a, 0x65, 0xbe, 0xdd, 0x17, 0xfd, 0x3d, 0x8c, 0x79, 0x27, 0xbe,
  0x0b, 0x5b, 0x6a, 0xbe, 0x64, 0x06, 0x5f, 0x3e, 0x95, 0x02, 0x02, 0xbe,
  0xd4, 0xac, 0x8e, 0xbe, 0xdd, 0x6a, 0x42, 0xbe, 0x89, 0x50, 0x13, 0xbe,
  0x74, 0x85, 0x8e, 0xbd, 0x85, 0xb0, 0x4b, 0x3e, 0x25, 0x49, 0x09, 0xbe,
  0x4e, 0x8b, 0xcf, 0xbd, 0xe6, 0x17, 0xfc, 0xbc, 0x82, 0x2c, 0x6d, 0xbe,
  0x7d, 0x93, 0xcf, 0xbd, 0xea, 0xe0, 0x55, 0xbe, 0x42, 0x13, 0x3e, 0xbe,
  0x35, 0xab, 0x8b, 0x3c, 0xdc, 0xb7, 0x43, 0x3e, 0x6d, 0x1a, 0x30, 0xbe,
  0x60, 0xd2, 0x87, 0x3e, 0xd3, 0x75, 0x40, 0x3d, 0xa6, 0x75, 0x64, 0x3e,
  0xd0, 0xaa, 0xfc, 0xbc, 0x64, 0x9b, 0x88, 0x3e, 0xf8, 0xd5, 0x38, 0x3e,
  0x78, 0x3d, 0x29, 0xbd, 0xf2, 0x0b, 0x25, 0xbe, 0x18, 0x0e, 0x65, 0xbd,
  0x43, 0x09, 0x87, 0x3e, 0x8d, 0x9f, 0xa0, 0x3d, 0x8b, 0x41, 0xf3, 0x3d,
  0xbc, 0x76, 0xcb, 0xbc, 0xd0, 0x40, 0x48, 0xbd, 0xb7, 0xc6, 0x46, 0x3d,
  0xa8, 0x61, 0x71, 0xbd, 0x42, 0xed, 0x4b, 0x3a, 0xe7, 0x2d, 0xeb, 0xbc,
  0x76, 0x5a, 0x87, 0x3e, 0xa1, 0xeb, 0x8f, 0x3e, 0x91, 0x68, 0x97, 0xbe,
  0xfc, 0x39, 0x1a, 0x3e, 0x39, 0xff, 0xf3, 0x3d, 0xc4, 0xbf, 0x3e, 0xbe,
  0xe6, 0xa3, 0x67, 0xbe, 0x62, 0x3e, 0xbc, 0xbe, 0x25, 0xf8, 0xac, 0x3d,
  0x1e, 0x8c, 0x38, 0xbe, 0x4c, 0xf4, 0x64, 0x3e, 0x47, 0x98, 0x0f, 0xbe,
  0xc5, 0x76, 0x39, 0xbe, 0xe3, 0x76, 0x76, 0xbd, 0xc0, 0xc1, 0x92, 0x3d,
  0xcc, 0xa6, 0x75, 0xbe, 0xf6, 0xa3, 0x73, 0x3e, 0x6c, 0x3a, 0xca, 0x3d,
  0xc1, 0x01, 0x51, 0xbe, 0x72, 0x5c, 0x19, 0x3e, 0xcd, 0xf6, 0xb3, 0x3e,
  0x90, 0x43, 0xff, 0x3d, 0x97, 0x1f, 0xd1, 0x3c, 0xa9, 0xa2, 0x29, 0x3e,
  0x43, 0x74, 0x91, 0x3d, 0x37, 0xeb, 0xa1, 0x3b, 0x51, 0xbc, 0x9f, 0x3e,
  0x41, 0x77, 0xb1, 0x3e, 0xf3, 0x13, 0xee, 0xbd, 0x01, 0x94, 0xfd, 0xbd,
  0x37, 0xb4, 0xf5, 0x3d, 0x05, 0xb3, 0x4d, 0xbe, 0x16, 0x1f, 0x44, 0xbe,
  0x51, 0xcb, 0x3d, 0x3c, 0x2b, 0xc0, 0x87, 0xbc, 0x30, 0x2c, 0x8b, 0x3e,
  0x9e, 0xd2, 0x3b, 0xbe, 0x1a, 0x76, 0xda, 0x3d, 0xbc, 0xec, 0xe1, 0x3e,
  0x41, 0x92, 0xb9, 0x3e, 0x87, 0x11, 0x3c, 0x3e, 0xa4, 0xaa, 0xb0, 0x3e,
  0x00, 0xe1, 0x64, 0x3d, 0x42, 0x06, 0xef, 0xbd, 0x3f, 0x7e, 0xa3, 0x3e,
  0xfb, 0x75, 0xe7, 0x3d, 0x41, 0x45, 0x0e, 0x3e, 0xbf, 0x78, 0xfa, 0xbd,
  0x50, 0xd5, 0x86, 0x3e, 0x9f, 0xcf, 0x09, 0x3e, 0x11, 0x57, 0x3f, 0xbd,
  0xfe, 0x83, 0x03, 0x3d, 0x42, 0x31, 0x29, 0xbd, 0x35, 0xcd, 0xc6, 0x3d,
  0xfa, 0xeb, 0x3d, 0x3e, 0x71, 0x7f, 0x84, 0x3e, 0x68, 0x6c, 0x54, 0xbd,
  0xcc, 0xb6, 0x31, 0xbe, 0x8a, 0xc4, 0x8a, 0x3e, 0xfa, 0x41, 0xaa, 0x3c,
  0xdb, 0xd1, 0x38, 0x3d, 0x6b, 0x8d, 0xc1, 0xbd, 0x64, 0xd5, 0x8a, 0x3d,
  0x8e, 0x55, 0x77, 0xbe, 0xd2, 0x22, 0xb4, 0x3e, 0x1e, 0x55, 0x92, 0xbd,
  0xbb, 0xe7, 0x5b, 0xbd, 0x97, 0x99, 0x39, 0xbe, 0x12, 0xdd, 0x9e, 0x3e,
  0x48, 0x5c, 0xf0, 0xbd, 0x4d, 0x31, 0x0e, 0xbd, 0x58, 0x8f, 0xb9, 0xbd,
  0x58, 0x90, 0xb8, 0x3d, 0x09, 0xbb, 0x4d, 0x3d, 0x72, 0x93, 0x13, 0xbe,
  0xb7, 0x25, 0x3a, 0xbe, 0x7e, 0x93, 0x28, 0xbe, 0x00, 0x87, 0x1f, 0xbd,
  0xff, 0x90, 0x77, 0x3d, 0x88, 0xa3, 0x15, 0x3e, 0xc4, 0xbf, 0xe7, 0x3a,
  0x47, 0xa5, 0x95, 0x3d, 0x04, 0xe0, 0x03, 0xbd, 0x7a, 0x83, 0x3a, 0x3e,
  0xcb, 0xea, 0xb6, 0x3b, 0xaf, 0x5e, 0x83, 0x3e, 0xf3, 0x81, 0x79, 0xbe,
  0x73, 0x08, 0xec, 0xbd, 0x32, 0xe2, 0x4d, 0xbe, 0x4a, 0x0a, 0x20, 0xbe,
  0x0d, 0xef, 0x7f, 0x3e, 0x98, 0x06, 0xc6, 0x3e, 0x07, 0x17, 0x97, 0x3e,
  0xba, 0x4d, 0x75, 0x3e, 0x2d, 0x63, 0xf5, 0x3c, 0xec, 0x39, 0x0f, 0x3e,
  0xcd, 0xdf, 0xae, 0xbd, 0x3a, 0x8f, 0xd0, 0xbd, 0xb8, 0x4f, 0x1c, 0x3e,
  0x84, 0xea, 0x9b, 0x3e, 0x7d, 0xd3, 0xb4, 0xbc, 0xec, 0x45, 0x8a, 0x3e,
  0x80, 0x73, 0x0b, 0xbd, 0x02, 0x99, 0x50, 0x3d, 0xaf, 0x4d, 0xee, 0xbd,
  0x36, 0x15, 0x87, 0x3e, 0x37, 0xb0, 0x21, 0xbe, 0xb9, 0x0b, 0xa2, 0xbd,
  0xc3, 0xfa, 0x75, 0x3e, 0x4f, 0x5c, 0xc5, 0x3c, 0x9d, 0xce, 0x1e, 0x3d,
  0x00, 0x90, 0xf9, 0x3d, 0x25, 0xce, 0x5f, 0xbc, 0x70, 0x48, 0x9d, 0xbd,
  0x28, 0x1e, 0xaa, 0x3d, 0xbc, 0x22, 0xc6, 0xbc, 0x02, 0x5f, 0x96, 0xbe,
  0x59, 0x63, 0xaf, 0xbd, 0xe5, 0x9d, 0xa3, 0x3e, 0xaf, 0x57, 0xa6, 0x3e,
  0x5e, 0x88, 0x78, 0x3e, 0x56, 0x7e, 0x82, 0x3d, 0xba, 0x44, 0xc1, 0xbc,
  0x61, 0xfd, 0xd2, 0xbd, 0xfc, 0x8d, 0x3d, 0x3e, 0xc2, 0xc1, 0x4b, 0xbe,
  0xf8, 0x5a, 0x53, 0xbe, 0x76, 0xb6, 0x53, 0xbe, 0xae, 0x1c, 0xa9, 0x3e,
  0x0d, 0x12, 0x62, 0x3e, 0x07, 0x7c, 0x5c, 0xbd, 0x56, 0x21, 0x83, 0x3e,
  0xfb, 0x47, 0x89, 0x3d, 0x38, 0xf1, 0xac, 0xbd, 0x80, 0x87, 0xcf, 0xbd,
  0xd6, 0xc3, 0x86, 0xbe, 0xf9, 0x0b, 0x41, 0xbe, 0x75, 0x48, 0xfb, 0x3d,
  0xfd, 0x7a, 0x69, 0x3e, 0xdd, 0x4e, 0x08, 0x3d, 0xab, 0xa2, 0x70, 0xbe,
  0xf8, 0x9b, 0x80, 0x3a, 0xb8, 0x00, 0x11, 0xbe, 0xec, 0x87, 0xbc, 0x3c,
  0x98, 0xf2, 0x92, 0x3e, 0x77, 0x4d, 0x36, 0xbd, 0x78, 0x18, 0x12, 0xbd,
  0x74, 0xde, 0x95, 0x3d, 0x58, 0x29, 0x94, 0x3e, 0x80, 0x7c, 0x5f, 0xbc,
  0x18, 0x46, 0x3e, 0xbe, 0x1a, 0x16, 0x6f, 0x3d, 0x7c, 0xce, 0x3c, 0xbd,
  0xed, 0xaa, 0x49, 0xbc, 0xf2, 0x1a, 0x15, 0x3e, 0xac, 0x9f, 0x65, 0x3e,
  0x90, 0x5a, 0x49, 0xbd, 0xe5, 0x84, 0x29, 0xbd, 0x2f, 0xdb, 0xbb, 0x3e,
  0xff, 0x97, 0x95, 0x3d, 0x30, 0x9c, 0xa2, 0x3d, 0xa4, 0x4f, 0x29, 0x3e,
  0xbd, 0x63, 0x80, 0x3e, 0xcc, 0xff, 0x9a, 0x3c, 0xd3, 0xc9, 0x03, 0xbe,
  0xa5, 0x1b, 0x36, 0xbd, 0xab, 0x4f, 0x06, 0xbc, 0x45, 0x2c, 0xd8, 0x3c,
  0xac, 0x7c, 0x82, 0x3e, 0xcf, 0x8c, 0xae, 0x3d, 0xdd, 0xc8, 0xac, 0x3d,
  0x30, 0x91, 0x8f, 0xbd, 0x96, 0x2c, 0x50, 0xbe, 0x4d, 0xc7, 0x92, 0x3b,
  0x4a, 0x82, 0xb8, 0x3d, 0x07, 0xb9, 0x09, 0xbe, 0xb8, 0xba, 0xe1, 0xbd,
  0xa5, 0xc3, 0xd0, 0x3d, 0xf0, 0xe0, 0xa7, 0x3d, 0xd2, 0x50, 0xf7, 0x3c,
  0xd0, 0x98, 0x2d, 0x3e, 0x02, 0x62, 0x93, 0x3c, 0xb6, 0x34, 0xf1, 0xbd,
  0x20, 0x7d, 0x39, 0xbe, 0x0b, 0x7e, 0x19, 0x3e, 0xc6, 0x35, 0x80, 0x3d,
  0xa0, 0x99, 0x4d, 0xbe, 0x6f, 0x4f, 0x2b, 0xbe, 0xbd, 0x1b, 0xaa, 0xbd,
  0xab, 0x79, 0x2f, 0xbd, 0xbf, 0xeb, 0x71, 0x3b, 0x76, 0x5c, 0x83, 0x3d,
  0x80, 0x77, 0xe7, 0xbb, 0xbf, 0xf5, 0x14, 0xbe, 0x4c, 0x61, 0x3b, 0xbe,
  0x48, 0x49, 0x46, 0xbe, 0x3f, 0x85, 0x17, 0x3e, 0xc5, 0x96, 0x43, 0xbd,
  0x18, 0x2d, 0x74, 0xbe, 0x46, 0x1a, 0x6f, 0xbe, 0x35, 0x50, 0x9f, 0xbc,
  0xd3, 0x3b, 0xfe, 0xbd, 0xd9, 0x6a, 0xc4, 0xbd, 0xf0, 0x81, 0x2c, 0xbd,
  0x8c, 0xe4, 0x6c, 0x3e, 0x68, 0xd2, 0x31, 0x3e, 0x2c, 0x5d, 0x7f, 0xbe,
  0x50, 0x50, 0x50, 0x3e, 0x84, 0x00, 0x68, 0xbe, 0xdc, 0x47, 0x43, 0xbe,
  0x48, 0x91, 0xf2, 0x3d, 0x60, 0xa2, 0x71, 0xbe, 0xec, 0x3e, 0x4a, 0xbe,
  0xd0, 0x3c, 0x7b, 0xbd, 0x18, 0x3e, 0x11, 0xbe, 0x4c, 0xf0, 0x64, 0x3e,
  0x88, 0x47, 0x46, 0xbe, 0xb4, 0xf0, 0x14, 0xbe, 0xc0, 0x5b, 0x00, 0xbc,
  0x98, 0xf8, 0xae, 0x3d, 0xec, 0xcf, 0x17, 0x3e, 0xd8, 0xa7, 0x26, 0xbe,
  0xc0, 0x6f, 0xdf, 0xbc, 0x00, 0x50, 0x08, 0x3a, 0xc0, 0x8b, 0xba, 0xbc,
  0xdc, 0x92, 0x64, 0xbe, 0x48, 0x7d, 0x2c, 0xbe, 0x80, 0x31, 0xa4, 0xbc,
  0x80, 0xe0, 0x90, 0xbb, 0x80, 0xf9, 0xcd, 0xbb, 0x08, 0x78, 0x62, 0xbe,
  0xcc, 0x29, 0x51, 0xbe, 0x40, 0x7f, 0xcd, 0xbc, 0x60, 0xe9, 0x45, 0x3e,
  0xf0, 0x7b, 0x4f, 0x3e, 0x84, 0xe7, 0x31, 0x3e, 0x05, 0x30, 0xa4, 0x3e,
  0x44, 0xcd, 0x28, 0xbe, 0x7d, 0x8c, 0x32, 0x3e, 0xed, 0x0b, 0x0e, 0x3d,
  0x70, 0x2b, 0x62, 0x3d, 0x94, 0xd7, 0x01, 0xbe, 0x6e, 0x99, 0x04, 0x3e,
  0xda, 0xba, 0x52, 0xbe, 0xf4, 0xd9, 0x24, 0xbe, 0xff, 0xc4, 0x55, 0x3e,
  0x5d, 0x22, 0x2e, 0xbd, 0x14, 0x2e, 0xb6, 0x3e, 0x6d, 0x9f, 0x1d, 0x3e,
  0xf0, 0xb6, 0xd2, 0x3d, 0xfb, 0x8d, 0x03, 0x3e, 0x61, 0x49, 0x3f, 0xbe,
  0x59, 0xa8, 0x2d, 0xbd, 0x1e, 0x4d, 0xc1, 0xbd, 0xf0, 0xb8, 0x37, 0xb9,
  0x32, 0x1c, 0xec, 0x3c, 0x5f, 0xd1, 0x00, 0x3e, 0x9d, 0x9b, 0x93, 0x3c,
  0x21, 0x23, 0xfb, 0x3c, 0x45, 0xbd, 0xfd, 0xbc, 0x86, 0xb5, 0x40, 0x3e,
  0xb2, 0x1b, 0x9b, 0xbc, 0x3e, 0x26, 0x08, 0xbe, 0x3e, 0xd5, 0x02, 0x3d,
  0xb7, 0xbf, 0x43, 0xbe, 0x21, 0xa6, 0xae, 0xbd, 0x15, 0x33, 0x02, 0xbc,
  0xd5, 0xae, 0xc0, 0xbc, 0x35, 0x0d, 0x99, 0x3e, 0x83, 0xf2, 0x19, 0xbd,
  0x0b, 0xa2, 0x3d, 0x3e, 0xe4, 0xd9, 0x5f, 0x3e, 0x82, 0xcf, 0x2d, 0xbd,
  0x76, 0x40, 0xd5, 0x3c, 0xe9, 0x3d, 0xa4, 0x3e, 0xd7, 0xa2, 0xae, 0xbd,
  0x02, 0x77, 0x90, 0xbe, 0xf2, 0x5a, 0x1e, 0xbe, 0x7e, 0xe8, 0xc1, 0x3e,
  0x61, 0x72, 0x8b, 0x3d, 0xcb, 0x64, 0x71, 0x3e, 0xb2, 0xd6, 0x86, 0x3c,
  0xee, 0x95, 0x14, 0xbb, 0x5e, 0x47, 0x2a, 0xbe, 0xfb, 0xef, 0x07, 0x3e,
  0x3f, 0xec, 0x38, 0x3e, 0x1e, 0x89, 0x51, 0xbe, 0xc1, 0x0c, 0x4a, 0x3d,
  0x02, 0xb4, 0x68, 0x3e, 0x11, 0x92, 0xd6, 0x3d, 0x64, 0xc3, 0xfb, 0x3d,
  0x47, 0x48, 0xd7, 0xbd, 0x33, 0x56, 0xca, 0x3c, 0xbd, 0x03, 0x74, 0xbe,
  0x09, 0x4b, 0x2f, 0x3e, 0xda, 0xb0, 0x32, 0xbe, 0xf4, 0x01, 0x29, 0xbe,
  0x8f, 0x60, 0xcb, 0xbd, 0xad, 0xb0, 0x1f, 0x3e, 0x76, 0xc4, 0xe4, 0x3d,
  0x52, 0xf8, 0xcb, 0x3d, 0xca, 0x3f, 0x02, 0xbe, 0x20, 0x74, 0x2a, 0xbe,
  0xda, 0xb7, 0x40, 0x3e, 0x11, 0x4e, 0xb7, 0x3d, 0x56, 0x13, 0x36, 0x3b,
  0x9f, 0xaa, 0x08, 0x3e, 0xd2, 0x26, 0x05, 0xbe, 0x8a, 0x20, 0x31, 0xbc,
  0x7d, 0xc1, 0x26, 0x3e, 0x71, 0x2b, 0x5d, 0x3c, 0xe4, 0x47, 0x8f, 0x3e,
  0x8c, 0xb0, 0x11, 0xbe, 0x88, 0xfc, 0xc5, 0x3d, 0x13, 0xfd, 0x26, 0x3d,
  0x2f, 0x14, 0x8f, 0x3d, 0xbf, 0xa3, 0x23, 0xbe, 0xaa, 0x4f, 0xde, 0x3d,
  0xfe, 0x81, 0xb6, 0x3d, 0xf3, 0x10, 0x25, 0x3c, 0x18, 0x5c, 0xb7, 0x3d,
  0xcb, 0x2b, 0xc8, 0x3d, 0xff, 0x13, 0xe6, 0xbc, 0xf8, 0x7f, 0xb4, 0x3d,
  0x09, 0xa3, 0x99, 0x3e, 0x4e, 0xcd, 0xa8, 0xbe, 0x10, 0x66, 0x4c, 0xbe,
  0x6e, 0xf4, 0xae, 0xbe, 0x4b, 0x7f, 0xd9, 0x3d, 0x0e, 0xe5, 0xc3, 0x3d,
  0x0d, 0x03, 0x77, 0x3e, 0x89, 0x41, 0x71, 0x3d, 0x45, 0xae, 0x92, 0x3e,
  0x44, 0x6d, 0x7e, 0xbe, 0xa7, 0x64, 0xa6, 0x3c, 0x0f, 0xf4, 0x4d, 0x3e,
  0xe5, 0x7f, 0x36, 0x3e, 0x02, 0xa4, 0xbb, 0xbc, 0x51, 0x5f, 0x65, 0x3c,
  0x3b, 0x2d, 0xed, 0x3d, 0x0a, 0x3b, 0xb9, 0xbe, 0x37, 0xd9, 0xb6, 0x3d,
  0x4a, 0xf6, 0x9b, 0xbc, 0x90, 0x49, 0xc9, 0x3e, 0x94, 0xd8, 0xc6, 0xbc,
  0x83, 0xa0, 0xd8, 0x3d, 0x3c, 0xc6, 0x3c, 0xbe, 0xf7, 0xdb, 0x50, 0xbb,
  0x5e, 0x18, 0x6d, 0x3d, 0x24, 0x10, 0x2e, 0xbb, 0xb9, 0xdb, 0x62, 0x3d,
  0xfd, 0x34, 0x6b, 0xbc, 0x22, 0x39, 0x52, 0x3d, 0x49, 0xa2, 0x64, 0xbb,
  0x0a, 0x07, 0x81, 0x3d, 0x3c, 0xe0, 0xd5, 0xbd, 0xf8, 0x29, 0x53, 0x3c,
  0x12, 0x72, 0x92, 0xbd, 0x98, 0x23, 0x10, 0x3e, 0x92, 0xff, 0x2c, 0x3b,
  0x10, 0x08, 0x33, 0xbe, 0x2a, 0x45, 0x0d, 0x3d, 0xad, 0x2f, 0x60, 0x3e,
  0x14, 0xab, 0x9f, 0x3e, 0xf2, 0x01, 0x08, 0x3e, 0x0d, 0xdd, 0x3d, 0x3e,
  0x62, 0x0e, 0xde, 0x3d, 0xbc, 0xb7, 0x1c, 0xbe, 0x4c, 0x9b, 0x72, 0xbe,
  0x3a, 0x67, 0x09, 0x3e, 0x19, 0x57, 0xe7, 0xbd, 0xc9, 0x40, 0x99, 0x3b,
  0x9d, 0x28, 0x68, 0xbe, 0xc8, 0xcd, 0x4b, 0xbe, 0xdc, 0xd7, 0xcc, 0x3d,
  0x18, 0x11, 0x85, 0xbd, 0xe2, 0xad, 0x10, 0xbe, 0x9c, 0xbc, 0x29, 0xbe,
  0x4e, 0xa6, 0x29, 0xbd, 0xb4, 0x8f, 0x30, 0xbe, 0xeb, 0xf8, 0x3f, 0x3e,
  0xa2, 0x85, 0x6b, 0xbe, 0x8b, 0xb4, 0x2d, 0x3d, 0x86, 0x54, 0xfc, 0xbc,
  0x60, 0xd9, 0x95, 0xbc, 0xf1, 0xe8, 0x5d, 0x3e, 0xfd, 0x82, 0xcd, 0xbd,
  0x12, 0x67, 0x37, 0x3e, 0x99, 0x96, 0x38, 0xbe, 0x29, 0x5e, 0x96, 0xbd,
  0xf2, 0x32, 0x2b, 0x3e, 0x04, 0x1f, 0x2e, 0xbe, 0x5c, 0x1d, 0x5c, 0x3d,
  0x84, 0x53, 0x39, 0xbe, 0xed, 0x56, 0x17, 0xbe, 0x88, 0xdd, 0xe6, 0xbd,
  0x9a, 0xd7, 0x21, 0x3e, 0xb7, 0xe0, 0x0c, 0xbe, 0x8d, 0x5d, 0xa4, 0x3e,
  0x1e, 0x89, 0x02, 0xbe, 0x94, 0x86, 0xc4, 0xbd, 0x8d, 0x24, 0xd4, 0xbd,
  0x4c, 0x52, 0x55, 0x3e, 0x8f, 0x40, 0x12, 0xbe, 0xf0, 0x80, 0xa7, 0xbd,
  0xf5, 0x95, 0x11, 0x3e, 0x23, 0xf6, 0xcc, 0x3d, 0x14, 0x91, 0xae, 0x3e,
  0x88, 0x67, 0x55, 0x3e, 0x40, 0x89, 0x3d, 0x3e, 0xa4, 0x6c, 0xd6, 0x3d,
  0x05, 0x19, 0x97, 0xba, 0x72, 0x9e, 0x0f, 0xbe, 0x94, 0x16, 0x6a, 0x3e,
  0xc4, 0x3e, 0xec, 0x3c, 0xc6, 0x98, 0x5e, 0xbe, 0xa9, 0xfe, 0xfd, 0x3d,
  0x01, 0xbe, 0x92, 0x3e, 0x66, 0xd0, 0x18, 0x3e, 0xc4, 0xe9, 0x2e, 0x3e,
  0x6b, 0xb0, 0xc0, 0x3e, 0xfb, 0xa6, 0xba, 0xbe, 0xd9, 0x0d, 0x57, 0xbe,
  0x4c, 0xfd, 0x82, 0xbe, 0xac, 0x7e, 0x15, 0xbe, 0x2d, 0xce, 0x12, 0xbe,
  0xdb, 0x3b, 0xfb, 0x3c, 0x14, 0x54, 0x93, 0x3d, 0x44, 0xba, 0x8e, 0x3d,
  0xec, 0xaf, 0x17, 0xbe, 0xbc, 0xb9, 0x17, 0xbe, 0xe3, 0xcd, 0xcd, 0xbd,
  0x3a, 0x1d, 0x8b, 0x3e, 0x82, 0x41, 0x74, 0x3e, 0xa7, 0xcd, 0xb8, 0x3d,
  0xc2, 0x3d, 0x1f, 0x3e, 0xc8, 0x99, 0xac, 0xbe, 0xe2, 0xad, 0x8e, 0x3e,
  0xe5, 0x5d, 0x23, 0x3e, 0x27, 0x91, 0x08, 0xbd, 0x41, 0x7c, 0xae, 0x3e,
  0x8d, 0x4e, 0x89, 0x3d, 0x46, 0x1a, 0xc7, 0xbd, 0x9e, 0xff, 0xea, 0xbd,
  0x96, 0x4e, 0xb4, 0x3d, 0xe3, 0x4d, 0xa3, 0x3c, 0x3c, 0xb0, 0x68, 0xbe,
  0x07, 0x5b, 0x96, 0xbe, 0x6e, 0x85, 0xa2, 0x3e, 0x88, 0xda, 0xe3, 0x3d,
  0xa5, 0x03, 0x03, 0xbe, 0x17, 0x16, 0x32, 0x3d, 0xab, 0xb6, 0xb1, 0x3e,
  0x2c, 0x9f, 0x38, 0xbd, 0xcd, 0x05, 0x40, 0x3d, 0xaf, 0xd6, 0x62, 0x3d,
  0x5c, 0x4d, 0x75, 0x3e, 0xc8, 0xe4, 0x0c, 0xbe, 0x5e, 0x3a, 0x92, 0x3e,
  0xfb, 0xeb, 0x2a, 0x3e, 0xad, 0x35, 0x33, 0xbd, 0x00, 0x85, 0x48, 0xbd,
  0x17, 0x09, 0x0b, 0xbe, 0x64, 0xed, 0x44, 0xbd, 0x6f, 0xbd, 0x05, 0xbe,
  0x1c, 0x63, 0x93, 0x3d, 0xef, 0xd8, 0x1a, 0x3e, 0x7d, 0x0b, 0x9d, 0x3b,
  0xf9, 0x11, 0x2c, 0x3e, 0xde, 0xf3, 0xb8, 0x3d, 0xb7, 0x13, 0xab, 0xbc,
  0xdd, 0xdb, 0x12, 0xbe, 0x29, 0xd9, 0xed, 0x3c, 0x35, 0xd9, 0x66, 0x3e,
  0xce, 0x89, 0xc2, 0x3e, 0xe2, 0xb2, 0xa6, 0x3d, 0x47, 0x55, 0x00, 0xbe,
  0x2e, 0x51, 0x39, 0xbe, 0x66, 0x0e, 0xad, 0x3e, 0xd2, 0x83, 0xac, 0x3d,
  0x30, 0x82, 0x21, 0xbe, 0x5d, 0x9a, 0x14, 0x3e, 0xc2, 0xda, 0x5e, 0x3e,
  0xbb, 0x7e, 0xf6, 0x3d, 0xf6, 0x84, 0x9b, 0xbe, 0x06, 0xf0, 0x3e, 0x3e,
  0x5b, 0xe9, 0xba, 0x3b, 0xee, 0x08, 0xc4, 0xbd, 0x1d, 0x43, 0x24, 0xbd,
  0x9d, 0x71, 0x42, 0x3e, 0xc9, 0x66, 0xf0, 0x3d, 0x4a, 0x88, 0xc8, 0xbd,
  0x39, 0xe8, 0x65, 0x3d, 0x46, 0x93, 0x7e, 0x3e, 0x26, 0x46, 0x3f, 0xbd,
  0xbe, 0x05, 0x7d, 0x3e, 0xbc, 0x27, 0xc9, 0x3c, 0x5d, 0x9b, 0xfc, 0x3d,
  0xea, 0x65, 0x08, 0xbe, 0xea, 0xf1, 0x35, 0x3e, 0x63, 0x44, 0xae, 0x3e,
  0x72, 0x64, 0x66, 0x3e, 0x5d, 0xd7, 0xf9, 0xbd, 0xb8, 0x80, 0x93, 0xbe,
  0xfe, 0x27, 0x05, 0xbe, 0x5c, 0xa2, 0x6f, 0x3d, 0xee, 0xfa, 0x4e, 0x3e,
  0xee, 0x2b, 0x49, 0x3e, 0xaa, 0x99, 0xb7, 0x39, 0x6d, 0xd7, 0x20, 0xbe,
  0x72, 0x4e, 0x5c, 0x3e, 0xfd, 0xc8, 0x84, 0x3e, 0x79, 0x2a, 0x7b, 0xbe,
  0x7e, 0x5e, 0x40, 0xbe, 0xb2, 0x1a, 0x86, 0x3d, 0x33, 0x69, 0x34, 0x3e,
  0x93, 0x26, 0xf9, 0xbd, 0x67, 0xbe, 0xcd, 0x3e, 0x82, 0x50, 0x7a, 0x3e,
  0x9c, 0x33, 0x13, 0x3e, 0x0e, 0x6b, 0xec, 0xbd, 0x4d, 0x61, 0x1c, 0xbe,
  0x74, 0x2a, 0xa2, 0xbc, 0x74, 0x78, 0xeb, 0xbd, 0xf1, 0x93, 0x34, 0x3d,
  0x14, 0x0c, 0x84, 0x3e, 0xd0, 0xce, 0x32, 0x3e, 0x47, 0x1e, 0x1a, 0x3e,
  0x9c, 0x05, 0xb2, 0x3b, 0x27, 0x5b, 0x25, 0xbd, 0x56, 0xf9, 0xfc, 0x3d,
  0x1d, 0xcf, 0xb0, 0x3a, 0x07, 0x97, 0x1b, 0xbb, 0x6d, 0x69, 0x58, 0x3e,
  0x99, 0xb2, 0xce, 0xbc, 0xe0, 0xee, 0xbf, 0x3d, 0x7e, 0x83, 0x47, 0x3e,
  0xc0, 0x2d, 0x65, 0xbe, 0xb1, 0xa1, 0xb9, 0x3e, 0xcf, 0xcd, 0x9d, 0x3e,
  0xe3, 0x6d, 0x4c, 0xbb, 0x70, 0x3f, 0x75, 0x3e, 0xe4, 0xf3, 0x81, 0x3e,
  0xdc, 0xf1, 0x73, 0xbc, 0x85, 0x4e, 0x9a, 0xbe, 0xa2, 0x29, 0x86, 0xbe,
  0xef, 0x47, 0x70, 0x3e, 0x10, 0x77, 0x75, 0x3e, 0xe7, 0x8d, 0x7f, 0xbe,
  0x8d, 0x7f, 0xcc, 0x3e, 0x2a, 0x0f, 0xc4, 0x3d, 0x03, 0xb9, 0x9b, 0x3e,
  0x8f, 0x74, 0xa3, 0xbc, 0xaa, 0x6b, 0xf8, 0xbd, 0xb5, 0xb5, 0x4e, 0xbe,
  0x5b, 0xb4, 0x73, 0x3d, 0x7d, 0xd4, 0xad, 0x3d, 0xb5, 0x67, 0x8c, 0xbd,
  0xfa, 0x8c, 0x4f, 0x3e, 0xca, 0x98, 0xba, 0x3d, 0x54, 0x3a, 0x42, 0x3e,
  0xe4, 0x54, 0x4a, 0x3e, 0xbf, 0x6e, 0x65, 0xbe, 0x05, 0x77, 0x1f, 0x3e,
  0x3c, 0xdf, 0x68, 0x3e, 0x30, 0x82, 0x6c, 0x3d, 0x9b, 0xe7, 0xaa, 0xbe,
  0xe7, 0x00, 0x7a, 0xbe, 0x31, 0xf2, 0x53, 0x3d, 0x5a, 0x7a, 0xa9, 0xbd,
  0x8e, 0x1d, 0xd4, 0xbd, 0xea, 0xb3, 0xec, 0x3c, 0x5a, 0x9f, 0x1f, 0x3e,
  0x67, 0xe4, 0x09, 0x3e, 0x7e, 0x82, 0xa5, 0xbd, 0x8b, 0xe6, 0x84, 0xbc,
  0xa8, 0x03, 0x73, 0xbe, 0x93, 0xf7, 0x20, 0xbd, 0x81, 0x56, 0x44, 0xbd,
  0x13, 0x41, 0xb2, 0x3e, 0x8d, 0xbb, 0xf2, 0xbc, 0x70, 0x38, 0x11, 0x3e,
  0x4a, 0x57, 0x85, 0x3d, 0xfd, 0x92, 0x10, 0x3d, 0xe8, 0xac, 0xa6, 0xbd,
  0x4c, 0x89, 0x45, 0xbd, 0x22, 0x11, 0x61, 0xbe, 0x03, 0x63, 0x8d, 0xbe,
  0xff, 0x57, 0x80, 0xbe, 0x05, 0xb3, 0xd0, 0x3e, 0x1d, 0x18, 0xd3, 0x3c,
  0x7a, 0x6e, 0x13, 0xbd, 0xc3, 0xe9, 0x76, 0x3e, 0xab, 0x09, 0xd0, 0xbd,
  0xff, 0xe7, 0x54, 0xbe, 0x25, 0x47, 0xa8, 0x3e, 0x42, 0xf6, 0x79, 0x3b,
  0xac, 0xe3, 0x38, 0x3c, 0xbd, 0xcd, 0x80, 0x3d, 0x62, 0x5a, 0x94, 0xbd,
  0x57, 0x2e, 0x38, 0x3e, 0x87, 0x59, 0xbc, 0x3b, 0x84, 0x70, 0xe1, 0x3d,
  0xac, 0xda, 0xdb, 0x3c, 0x9d, 0xdb, 0x32, 0x3e, 0xea, 0xb2, 0x18, 0x3e,
  0x96, 0xfa, 0x86, 0x3d, 0xf6, 0x96, 0x0c, 0xbe, 0xdc, 0xeb, 0xdc, 0x3d,
  0x2d, 0x7e, 0x15, 0xbc, 0xa8, 0x41, 0x43, 0xbe, 0x79, 0xb7, 0x03, 0x3e,
  0x85, 0xb1, 0x91, 0xbe, 0xc4, 0x16, 0x9c, 0x3e, 0x99, 0xcb, 0xbe, 0x3e,
  0x3f, 0x77, 0x9f, 0x3e, 0x0e, 0x73, 0x54, 0xbe, 0x26, 0x1f, 0xd7, 0x3d,
  0xcb, 0xa5, 0xd9, 0xbc, 0x70, 0x84, 0x95, 0xbe, 0xf3, 0x23, 0x86, 0xbc,
  0x9e, 0x53, 0x45, 0x3d, 0xc4, 0x3f, 0x37, 0x3e, 0xd1, 0x7d, 0x67, 0x3d,
  0x22, 0x50, 0x32, 0xbe, 0x92, 0xcb, 0x91, 0xbc, 0xec, 0x0c, 0x94, 0xbd,
  0xb6, 0x49, 0xff, 0xbb, 0xe5, 0xd4, 0x91, 0x3d, 0x1e, 0x37, 0x35, 0x3e,
  0x20, 0x3c, 0xbe, 0xbd, 0xfb, 0x3e, 0x64, 0xbe, 0x58, 0x57, 0xa2, 0xbd,
  0x59, 0x63, 0x77, 0xbe, 0x6a, 0xd5, 0x62, 0x3e, 0x12, 0x75, 0x31, 0x3e,
  0xe4, 0x2f, 0x66, 0x3e, 0x20, 0x13, 0x09, 0x3e, 0x4c, 0xec, 0x68, 0xbc,
  0x43, 0xf0, 0x1b, 0xbe, 0x0f, 0xb4, 0x1d, 0xbe, 0xe9, 0x45, 0x33, 0xbd,
  0xba, 0x32, 0x82, 0x3c, 0xa7, 0x64, 0x9d, 0x3e, 0x8c, 0x49, 0x38, 0xbe,
  0xe6, 0xb6, 0x8b, 0x3e, 0x48, 0x40, 0xb5, 0x3e, 0x38, 0x5e, 0xad, 0x3d,
  0x80, 0xcc, 0x26, 0xbd, 0x0c, 0x01, 0x89, 0x3e, 0x7a, 0xea, 0x78, 0x3d,
  0xad, 0x5f, 0xb2, 0xba, 0xb7, 0x7a, 0x61, 0x3b, 0x45, 0x3c, 0xd7, 0xbd,
  0x5b, 0xc9, 0x26, 0x3e, 0x98, 0x1d, 0xea, 0x3d, 0x10, 0xc8, 0x2f, 0x3d,
  0xae, 0x97, 0xcc, 0xbd, 0x90, 0x8b, 0x63, 0x3c, 0x3f, 0xbf, 0x11, 0xbd,
  0x86, 0x6a, 0x85, 0xbe, 0x2b, 0x83, 0xbf, 0xbd, 0x67, 0xc9, 0xa4, 0xbc,
  0xdf, 0xdf, 0x1a, 0x3e, 0xa7, 0xb9, 0x79, 0x3e, 0x7d, 0xce, 0x85, 0x3e,
  0xd5, 0xae, 0xb7, 0xbc, 0xce, 0x1a, 0x43, 0xbe, 0x65, 0x5d, 0x36, 0xbd,
  0xbd, 0x90, 0x80, 0x3e, 0x3b, 0xab, 0x60, 0xbe, 0x7e, 0xe9, 0x8f, 0xbc,
  0xb1, 0xe1, 0x95, 0x3e, 0x95, 0x14, 0x18, 0x3e, 0xd0, 0xd1, 0x29, 0xbe,
  0x0b, 0xca, 0xc0, 0x3d, 0x0b, 0x7e, 0xe2, 0x3d, 0x29, 0x04, 0x33, 0x3e,
  0x02, 0x0d, 0x1f, 0xbe, 0x9f, 0x00, 0x55, 0xbe, 0x15, 0x2f, 0xd0, 0xbd,
  0x3e, 0xa6, 0xa6, 0xbd, 0x3e, 0x1b, 0xd4, 0x3c, 0x9a, 0xaa, 0x8e, 0x3e,
  0x8f, 0x02, 0x3f, 0xbc, 0xae, 0x3b, 0x01, 0x3c, 0x6f, 0xcb, 0xdf, 0x3d,
  0x8a, 0x9d, 0x24, 0xbe, 0x31, 0xb0, 0x4c, 0x3e, 0x7a, 0x47, 0x86, 0x3c,
  0x9b, 0x78, 0x98, 0xbe, 0x3b, 0x1b, 0x00, 0xbe, 0x34, 0x74, 0x26, 0x3e,
  0x35, 0xe8, 0x0a, 0x3a, 0xd8, 0x5c, 0x8b, 0xbe, 0x5d, 0xc9, 0x64, 0x3d,
  0x58, 0xee, 0x55, 0x3e, 0x2d, 0x3a, 0x77, 0xbe, 0x15, 0xf5, 0x05, 0x3e,
  0xe8, 0x53, 0x64, 0xbe, 0x3d, 0xb5, 0xf1, 0x3d, 0x20, 0x39, 0x25, 0xbe,
  0x94, 0x4b, 0xbb, 0x3d, 0x2c, 0x10, 0x05, 0xbe, 0x11, 0x7a, 0x74, 0x3d,
  0xff, 0x43, 0x3b, 0xbe, 0x46, 0x94, 0x38, 0x3e, 0x7c, 0xbc, 0x99, 0xbd,
  0xc6, 0x2f, 0x8b, 0xbd, 0xbe, 0x05, 0x31, 0xbc, 0x5e, 0xf9, 0x00, 0x3e,
  0x00, 0x17, 0x4c, 0xbe, 0xa0, 0x9b, 0xce, 0xbb, 0xa1, 0x18, 0x44, 0xbe,
  0xf8, 0x0b, 0x32, 0x3e, 0x16, 0xd0, 0x68, 0x3e, 0x0c, 0x6e, 0x98, 0xbc,
  0x09, 0xcc, 0x83, 0x3e, 0x99, 0x13, 0x62, 0x3e, 0xdf, 0xe9, 0xbd, 0x3d,
  0x51, 0x48, 0x1a, 0x3e, 0xb4, 0xc4, 0x08, 0x3e, 0xa9, 0x53, 0xb2, 0xbd,
  0xe8, 0x65, 0x1c, 0x3d, 0x5f, 0xb6, 0x3c, 0xbe, 0x00, 0x94, 0x97, 0xbd,
  0x82, 0x97, 0x9e, 0x3b, 0x42, 0x1c, 0xc0, 0x3e, 0x86, 0x46, 0xfa, 0x3d,
  0x0d, 0x9d, 0x08, 0xbd, 0xa2, 0x3e, 0xda, 0x3d, 0x8a, 0x98, 0x30, 0xbe,
  0x55, 0xdb, 0x8a, 0x3e, 0xce, 0x0e, 0x03, 0xbe, 0xc4, 0x45, 0x82, 0xbe,
  0x25, 0x78, 0xb2, 0xbc, 0x89, 0xfe, 0x15, 0x3d, 0x11, 0xbf, 0x91, 0x3e,
  0x31, 0xa1, 0x5b, 0x3d, 0x31, 0xc3, 0x51, 0xbe, 0x15, 0x9f, 0x29, 0x3e,
  0x08, 0xf9, 0xd4, 0xbd, 0xa9, 0x34, 0x08, 0xbd, 0x8a, 0xff, 0xbe, 0x3d,
  0x23, 0xae, 0x21, 0xbe, 0x57, 0xae, 0x1b, 0xbe, 0xd1, 0x76, 0x31, 0x3d,
  0x5a, 0x81, 0x05, 0xbd, 0x6e, 0x9b, 0x0b, 0x3e, 0xf8, 0x45, 0x3e, 0x3e,
  0xf6, 0xec, 0x2b, 0xbe, 0x1d, 0x90, 0xd6, 0xbd, 0x92, 0x63, 0xb0, 0xbd,
  0x03, 0xfb, 0xaa, 0x3d, 0x36, 0x05, 0xdf, 0x3d, 0x63, 0x18, 0x39, 0xbe,
  0xc7, 0xc0, 0x36, 0x3e, 0x3d, 0xe2, 0x86, 0x3e, 0x0c, 0xef, 0xd0, 0x3b,
  0x59, 0xa9, 0xf2, 0x3c, 0xd4, 0xe8, 0xd3, 0xbd, 0x7e, 0x0b, 0xa6, 0x3c,
  0x81, 0x8f, 0x98, 0x3e, 0x45, 0x1d, 0xc7, 0x3c, 0x69, 0x62, 0xfb, 0x3d,
  0x35, 0x86, 0x90, 0x3d, 0xbe, 0x90, 0x9e, 0x3e, 0x0d, 0x98, 0x50, 0x3e,
  0xf2, 0x13, 0x34, 0xbe, 0xe9, 0x41, 0xaf, 0xbd, 0x90, 0xb1, 0x1e, 0x3d,
  0x9e, 0x2e, 0x67, 0x3e, 0x08, 0xfe, 0x3e, 0xbc, 0x3d, 0x0a, 0x62, 0x3e,
  0x90, 0xd7, 0x80, 0x3e, 0x45, 0x13, 0x93, 0x3e, 0x66, 0x37, 0x8a, 0x3d,
  0x9b, 0x60, 0x88, 0x3e, 0xb5, 0xa6, 0x37, 0xbd, 0xaa, 0xfb, 0xa2, 0xbe,
  0x1f, 0xe4, 0x18, 0xbe, 0xfe, 0x87, 0x9c, 0x3d, 0x8e, 0x69, 0x30, 0x3d,
  0x61, 0xf7, 0xe2, 0x3d, 0x22, 0x23, 0x70, 0xbe, 0xda, 0x95, 0x3b, 0xbe,
  0xc1, 0x9b, 0x2a, 0xbe, 0x87, 0x0d, 0x2b, 0x3e, 0x34, 0x25, 0x80, 0xbe,
  0xfc, 0x79, 0xbc, 0x3d, 0xdf, 0xdf, 0xd5, 0xbd, 0xa8, 0xa3, 0xc5, 0x3d,
  0x8b, 0x9b, 0xfc, 0xbd, 0x53, 0x55, 0x89, 0x3d, 0x65, 0xa8, 0x0f, 0x3e,
  0x0c, 0x09, 0x38, 0x3e, 0xfa, 0xbd, 0x91, 0x3d, 0x65, 0x48, 0x87, 0xbe,
  0x63, 0x50, 0x30, 0x3e, 0xde, 0x37, 0xe4, 0xbd, 0xdc, 0x35, 0x4b, 0x3e,
  0x89, 0xb1, 0x91, 0xbd, 0xb9, 0x76, 0x51, 0x3e, 0xaf, 0x20, 0xa5, 0xbb,
  0x80, 0xfc, 0x37, 0xbe, 0x08, 0x31, 0xcc, 0xbd, 0x30, 0x64, 0x3f, 0x3e,
  0xaf, 0xf4, 0xf5, 0x3c, 0x00, 0x5f, 0xc1, 0xbd, 0xd2, 0xb7, 0xcc, 0x3d,
  0x30, 0x7c, 0x73, 0xbd, 0x6f, 0x88, 0x1a, 0xbe, 0x71, 0x90, 0x0f, 0xbe,
  0xa9, 0xd5, 0x57, 0x3e, 0x63, 0x0a, 0x1e, 0xbe, 0xed, 0x6b, 0x0e, 0xbe,
  0x67, 0xda, 0x7d, 0xbe, 0x48, 0xfc, 0x28, 0xbe, 0x33, 0x5d, 0xca, 0x3d,
  0xaa, 0x63, 0x96, 0xbd, 0x5f, 0x76, 0x66, 0x3b, 0x42, 0x5f, 0xb9, 0x3d,
  0x6f, 0x96, 0x99, 0xbc, 0x64, 0x24, 0x78, 0x3d, 0x80, 0xf1, 0x81, 0xbd,
  0x81, 0x30, 0x44, 0xbe, 0x90, 0x16, 0x70, 0xbd, 0x20, 0x3d, 0x83, 0x3c,
  0x3e, 0xc7, 0xb0, 0x3c, 0xd5, 0x4e, 0x17, 0xbe, 0x14, 0xb7, 0x24, 0xbe,
  0x44, 0xea, 0x23, 0xbe, 0x38, 0x6c, 0x55, 0xbe, 0x26, 0x7c, 0x06, 0x3e,
  0x95, 0xf1, 0xe0, 0xbd, 0x98, 0xb6, 0xf5, 0xbd, 0x9b, 0xe7, 0x7d, 0xbe,
  0x91, 0x5f, 0xcd, 0x3d, 0x2e, 0xd4, 0xf9, 0x3d, 0x50, 0xc7, 0x00, 0xbe,
  0xf8, 0x06, 0x41, 0x3e, 0x64, 0xb6, 0x14, 0x3e, 0xc9, 0xef, 0x08, 0x3e,
  0xe1, 0x5f, 0x62, 0xbe, 0xe2, 0x99, 0x06, 0x3e, 0x54, 0xa7, 0xa0, 0x3d,
  0x6c, 0x28, 0x87, 0x3e, 0x29, 0x1a, 0x9d, 0x3c, 0x6e, 0xc2, 0x9b, 0x3d,
  0x32, 0x0b, 0x5d, 0xbd, 0xc7, 0x2b, 0x3c, 0xbe, 0xa0, 0xf8, 0x91, 0x3d,
  0xbc, 0x9f, 0x95, 0xbe, 0xc7, 0xf3, 0xd3, 0x3c, 0x14, 0x4f, 0xa9, 0x3d,
  0x2f, 0x40, 0xa9, 0x3e, 0x7e, 0xa4, 0x1d, 0x3e, 0xf1, 0x05, 0x19, 0x3d,
  0xda, 0x57, 0xc9, 0xbd, 0xd9, 0xc1, 0x27, 0xbe, 0x56, 0x2d, 0xbc, 0x3b,
  0x40, 0xea, 0x30, 0xbe, 0x5e, 0x88, 0xdd, 0xbd, 0x0b, 0xd3, 0x83, 0xbd,
  0xce, 0x27, 0x0c, 0x3e, 0x08, 0x1d, 0xc7, 0x3d, 0x82, 0x1b, 0x21, 0x3d,
  0xa8, 0x84, 0xaa, 0xbd, 0xee, 0xfa, 0xab, 0x3e, 0x32, 0x8e, 0xb6, 0x3d,
  0x5d, 0xa8, 0x04, 0x3e, 0x6d, 0xd0, 0x84, 0x3d, 0xba, 0x06, 0xe8, 0xbd,
  0x21, 0xa6, 0x42, 0xbe, 0x7b, 0xdb, 0x5d, 0x3b, 0xa7, 0x0d, 0x1d, 0x3d,
  0x98, 0xa3, 0x09, 0xbe, 0xe7, 0xc8, 0x59, 0x3e, 0x4c, 0x6a, 0x42, 0xbd,
  0xf3, 0xa3, 0x74, 0xbe, 0x5a, 0xc9, 0x13, 0xbd, 0x45, 0x6c, 0x28, 0xbc,
  0xb3, 0xf9, 0xcb, 0xbd, 0x9f, 0x44, 0x65, 0xbd, 0x94, 0xfc, 0x21, 0x3e,
  0x4f, 0xf0, 0x37, 0xbe, 0xee, 0xa6, 0x3d, 0x3d, 0xad, 0x84, 0xae, 0xbd,
  0x99, 0x7d, 0x3d, 0xbe, 0x7e, 0x35, 0x68, 0x3d, 0x6b, 0xab, 0x07, 0xbe,
  0x32, 0x2e, 0xd5, 0xbd, 0x18, 0x3a, 0x62, 0x3d, 0xbe, 0x73, 0x30, 0x3e,
  0x76, 0x4e, 0x60, 0xbe, 0x11, 0xb8, 0x0d, 0x3d, 0xdb, 0x00, 0x0f, 0xbd,
  0x11, 0xe4, 0x5c, 0xbd, 0xcd, 0x70, 0x79, 0xbe, 0x17, 0x20, 0x67, 0xbc,
  0xf8, 0xd3, 0x21, 0x3e, 0xaa, 0x08, 0x08, 0x3d, 0x70, 0xfc, 0x8c, 0xbd,
  0x86, 0x5b, 0x52, 0xbe, 0x4f, 0xea, 0xde, 0xbd, 0xf7, 0xed, 0xc5, 0x3d,
  0x4a, 0xeb, 0x6b, 0xbe, 0xd2, 0xb3, 0x4d, 0xbe, 0x89, 0x56, 0xb4, 0x3e,
  0x43, 0x76, 0xc0, 0xbd, 0x27, 0x5a, 0x8c, 0x3e, 0x73, 0x7d, 0xf4, 0xbd,
  0x4c, 0xdc, 0x7a, 0x3e, 0x02, 0x8d, 0x5c, 0x3e, 0x5b, 0xad, 0x68, 0xbe,
  0x1e, 0xe7, 0xe8, 0x3d, 0x0e, 0xe1, 0x75, 0xbe, 0xea, 0x1b, 0x5a, 0x3e,
  0x5e, 0x1b, 0xb7, 0x3e, 0x98, 0x23, 0x3e, 0x3c, 0x15, 0x7c, 0x9f, 0x3e,
  0x64, 0xb9, 0x84, 0xbc, 0x45, 0x78, 0xe4, 0x3d, 0x06, 0xe5, 0x57, 0xbe,
  0x75, 0x82, 0x21, 0x3e, 0x00, 0xb2, 0x8e, 0xbe, 0x3c, 0x9f, 0x72, 0xbe,
  0xe0, 0x1e, 0x97, 0xbe, 0xd3, 0xce, 0xb8, 0x3d, 0xd8, 0xc8, 0xdb, 0x3d,
  0xec, 0x67, 0x89, 0xbb, 0xca, 0x9b, 0xae, 0xbd, 0x84, 0xf4, 0x23, 0x3e,
  0x60, 0x81, 0xc1, 0xbd, 0x31, 0xc4, 0x21, 0x3e, 0x43, 0x16, 0x6b, 0xbe,
  0xb2, 0x2c, 0x7c, 0xbd, 0x6b, 0x5f, 0xa6, 0xbe, 0x93, 0xe4, 0x95, 0x3e,
  0xc7, 0xb5, 0x87, 0xbd, 0x49, 0xc9, 0x28, 0x3e, 0x11, 0xa4, 0x81, 0xbd,
  0xe7, 0xc4, 0x0b, 0xbe, 0x99, 0x03, 0xc0, 0xbd, 0xbe, 0x98, 0x90, 0x3e,
  0x60, 0x19, 0x27, 0xbd, 0x61, 0x6d, 0x21, 0xbe, 0xed, 0xd5, 0x13, 0xba,
  0x65, 0x05, 0xa5, 0x3e, 0xd7, 0x5e, 0x4c, 0x3e, 0xcf, 0xd9, 0xbe, 0xbd,
  0x3e, 0x0f, 0x23, 0xbe, 0x38, 0x5c, 0x45, 0xbe, 0x1d, 0x40, 0x84, 0xbe,
  0x48, 0x48, 0xb5, 0x3e, 0xfa, 0xf0, 0xda, 0x3e, 0xb9, 0x4c, 0xb8, 0x3c,
  0x14, 0xfa, 0xb7, 0x3c, 0x20, 0x7f, 0x78, 0x3e, 0x3f, 0x28, 0xbd, 0xbd,
  0x37, 0x24, 0xb6, 0x3d, 0xa9, 0xc9, 0x55, 0x3e, 0x7a, 0x8a, 0x62, 0xbd,
  0x53, 0x93, 0x45, 0xbd, 0xef, 0xf4, 0xaa, 0xbe, 0xcc, 0xaf, 0xd6, 0x3d,
  0x42, 0x94, 0xd3, 0x3d, 0xd9, 0xf5, 0x3f, 0x3e, 0xc0, 0xaa, 0x84, 0x3c,
  0xbb, 0x78, 0x07, 0x3e, 0x53, 0x4c, 0x3d, 0x3e, 0x55, 0x44, 0x02, 0xbe,
  0x2c, 0x27, 0x42, 0xbd, 0xa8, 0x1a, 0x00, 0x3e, 0xa5, 0xa5, 0xc6, 0xbd,
  0x67, 0x64, 0x6d, 0x3d, 0x4a, 0xcb, 0x80, 0x3c, 0x0b, 0x1b, 0x67, 0xbe,
  0x70, 0x8d, 0x80, 0x3e, 0xad, 0x4e, 0x1b, 0xbd, 0x33, 0x56, 0x05, 0xbd,
  0x78, 0x62, 0x12, 0x3d, 0x6e, 0xf3, 0x2b, 0x3e, 0xe4, 0x09, 0xc3, 0xbc,
  0x74, 0x36, 0x4a, 0xbe, 0xaf, 0x5e, 0x91, 0x3d, 0x44, 0xcf, 0x9e, 0xbd,
  0xb4, 0x97, 0x91, 0xbe, 0x44, 0x6e, 0x8e, 0xbe, 0x82, 0x26, 0xf1, 0x3d,
  0xc5, 0x1b, 0x34, 0x3e, 0xfa, 0xd7, 0xa3, 0xbd, 0x66, 0xc7, 0xe8, 0xbd,
  0xc5, 0x63, 0xcc, 0x3d, 0x33, 0xe6, 0x01, 0xbe, 0x87, 0x34, 0xf4, 0x3d,
  0xf3, 0x3f, 0x4f, 0x3c, 0xcc, 0x5f, 0x08, 0xbe, 0x17, 0x15, 0x1f, 0xbe,
  0x20, 0x26, 0x70, 0x3d, 0x89, 0x20, 0x33, 0xbe, 0x4b, 0x93, 0x42, 0x3e,
  0x9f, 0xc2, 0x8d, 0xbe, 0xf2, 0x57, 0x2a, 0xbe, 0x82, 0xe0, 0x35, 0x3d,
  0xc4, 0x00, 0xd7, 0x3c, 0x0a, 0x99, 0x43, 0xbe, 0x65, 0x18, 0x64, 0xbe,
  0xc4, 0x43, 0xfc, 0x3d, 0xca, 0xb9, 0x29, 0x3e, 0x8f, 0x8e, 0xbc, 0xbd,
  0xc8, 0xad, 0xa4, 0x3c, 0x42, 0x81, 0xf5, 0xbd, 0x94, 0xac, 0x2e, 0xbe,
  0xe8, 0x23, 0x0a, 0xbe, 0xec, 0xdf, 0xce, 0xbd, 0x8c, 0xec, 0xe6, 0xbd,
  0x23, 0xff, 0x81, 0xbe, 0x00, 0x45, 0x51, 0x3c, 0xf8, 0x3d, 0x27, 0xbe,
  0xfc, 0xad, 0xb8, 0xbd, 0x53, 0x76, 0xfa, 0x3d, 0x61, 0x1d, 0xe5, 0xbd,
  0x70, 0x8a, 0x24, 0xbd, 0xc0, 0x4a, 0x79, 0x3d, 0xca, 0xcd, 0x0b, 0xbd,
  0xae, 0x0b, 0x83, 0xbe, 0xe0, 0x0f, 0xe4, 0xbd, 0x0a, 0xff, 0x00, 0x3e,
  0xa9, 0x15, 0x3e, 0xbe, 0x07, 0x68, 0x60, 0x3e, 0x80, 0xdc, 0xef, 0x3b,
  0xac, 0xfc, 0x6b, 0x3e, 0xd5, 0x46, 0x84, 0xbb, 0xcd, 0x1a, 0x27, 0x3e,
  0x46, 0xc5, 0x45, 0x3e, 0xb8, 0x12, 0x72, 0x3e, 0x94, 0x89, 0x54, 0xbd,
  0xb0, 0x54, 0x52, 0x3e, 0x69, 0x94, 0x74, 0xbd, 0xd1, 0xcf, 0x0f, 0xbe,
  0xf4, 0x94, 0x14, 0x3e, 0xf8, 0x74, 0x74, 0xbe, 0x48, 0x4b, 0xc0, 0xbd,
  0x6d, 0x0d, 0x0e, 0x3d, 0x75, 0x8e, 0x1b, 0x3e, 0x20, 0x94, 0x0b, 0x3d,
  0x64, 0xe2, 0x14, 0xbe, 0x0c, 0x9d, 0x7e, 0xbe, 0x80, 0x10, 0x11, 0xbe,
  0x64, 0xf4, 0x0d, 0xbe, 0x44, 0xc1, 0x1c, 0xbe, 0xdc, 0x41, 0x1c, 0xbe,
  0x97, 0xb3, 0xae, 0xbd, 0x49, 0x51, 0x91, 0xbd, 0x40, 0x90, 0x73, 0xbd,
  0x00, 0x9d, 0x80, 0x3d, 0xcc, 0xb4, 0x3a, 0x3e, 0x99, 0xd9, 0xd4, 0xbd,
  0x7f, 0xa9, 0x5d, 0xbe, 0x98, 0x0f, 0xea, 0xbd, 0x6c, 0x9c, 0xff, 0x3d,
  0x62, 0x7c, 0x43, 0xbe, 0xa8, 0x16, 0xdf, 0xbd, 0xe0, 0xde, 0x7f, 0xbd,
  0x7b, 0xa3, 0xcf, 0x3d, 0x23, 0xb8, 0x3e, 0xbe, 0x18, 0xb7, 0x01, 0xbe,
  0xc9, 0xc3, 0xae, 0x3e, 0xe1, 0x2e, 0x64, 0x3c, 0xaf, 0xfc, 0x79, 0x3d,
  0x65, 0x48, 0x20, 0x3e, 0x7d, 0x4d, 0xc3, 0xbd, 0xbb, 0xa5, 0x9a, 0x3e,
  0x76, 0x64, 0x8c, 0x3e, 0x1f, 0x24, 0x90, 0xbe, 0x27, 0xb5, 0x43, 0xbe,
  0x17, 0x16, 0x0c, 0x3e, 0x98, 0xe3, 0xa8, 0x3e, 0xeb, 0x13, 0xdd, 0x3d,
  0x20, 0x72, 0x6d, 0x3e, 0x27, 0x25, 0xc6, 0x3d, 0x93, 0xb2, 0x4e, 0xbe,
  0xa0, 0x1c, 0xb1, 0x3d, 0x27, 0xf5, 0x59, 0x3e, 0x1c, 0xb1, 0xf7, 0x3d,
  0x01, 0x33, 0x4d, 0xbe, 0xaa, 0x75, 0xe4, 0x3b, 0xa7, 0xd9, 0xd4, 0xbd,
  0x8e, 0xfe, 0x9d, 0x3e, 0xd3, 0x2f, 0x80, 0xbe, 0x10, 0x44, 0xe8, 0xbc,
  0xc9, 0x61, 0x8f, 0x3d, 0xa7, 0xcc, 0x55, 0xbe, 0x9b, 0x59, 0x1e, 0x3d,
  0x70, 0xba, 0x5d, 0x3d, 0x01, 0xe0, 0x63, 0xbe, 0x5f, 0xcf, 0x53, 0xbe,
  0xe3, 0x31, 0x6d, 0x3d, 0x66, 0xcc, 0x66, 0x3e, 0x50, 0x0d, 0x41, 0xbd,
  0xce, 0xf7, 0x34, 0x3e, 0xe8, 0xd2, 0xe2, 0x3d, 0x90, 0xf7, 0x0b, 0xbb,
  0xf5, 0xa2, 0x66, 0xbe, 0x65, 0x9f, 0xe5, 0xbc, 0x70, 0x54, 0x15, 0xbe,
  0xfb, 0xad, 0x1b, 0x3e, 0xcb, 0x2c, 0x66, 0xbe, 0x46, 0x78, 0x6f, 0x3e,
  0x3f, 0x49, 0x1b, 0x3e, 0x81, 0x4f, 0x7e, 0x3e, 0xd4, 0xb2, 0xc2, 0xbd,
  0xa8, 0x84, 0xf8, 0xbd, 0xb3, 0x5f, 0x15, 0xbe, 0x21, 0x01, 0xf9, 0xbb,
  0xc1, 0x9b, 0x58, 0xbe, 0x31, 0x1b, 0x16, 0x3e, 0x8c, 0x28, 0x46, 0xbe,
  0x04, 0xa9, 0x69, 0x3e, 0xe8, 0x79, 0xfc, 0xbc, 0x39, 0x91, 0x36, 0xbe,
  0xe3, 0xe4, 0x26, 0xbd, 0x8e, 0x7b, 0x9a, 0xbd, 0x6d, 0x5e, 0x23, 0x3e,
  0x4e, 0x71, 0xc5, 0x3d, 0xaa, 0xdc, 0x1c, 0xbe, 0xdb, 0x52, 0x8c, 0xbd,
  0x27, 0xa0, 0xc3, 0x3d, 0xd4, 0x76, 0x30, 0x3e, 0x21, 0xa3, 0x9a, 0xbe,
  0xc0, 0x55, 0x52, 0x3e, 0x8a, 0xfe, 0x28, 0xbd, 0xb3, 0xa9, 0x23, 0x3e,
  0x56, 0x2b, 0x42, 0xbe, 0xb8, 0x2a, 0xe2, 0xbd, 0x68, 0xb7, 0x49, 0x3e,
  0x41, 0x5f, 0x85, 0xbe, 0x22, 0x4f, 0x6d, 0xbd, 0xe4, 0x63, 0x82, 0xbe,
  0xd7, 0xf1, 0xcf, 0x3d, 0xb4, 0xeb, 0x6c, 0xbe, 0xbc, 0x5c, 0x41, 0xbe,
  0x18, 0xa7, 0xb8, 0xbd, 0xa9, 0xf6, 0x3e, 0xbd, 0xbd, 0x70, 0x83, 0xbe,
  0x0f, 0xe2, 0xee, 0x3d, 0xcf, 0x7e, 0x9a, 0xbd, 0xcb, 0xd2, 0x89, 0xbe,
  0x52, 0xe6, 0x4f, 0x3d, 0x81, 0x8b, 0x11, 0x3c, 0x2a, 0xe8, 0x36, 0x3d,
  0x9c, 0x30, 0x37, 0xbe, 0x4d, 0x2d, 0x37, 0xbe, 0x39, 0x0c, 0xed, 0xbd,
  0xa4, 0x36, 0x80, 0x3d, 0x3c, 0x06, 0x03, 0x3e, 0x6b, 0x24, 0x99, 0xbd,
  0xfd, 0x84, 0xea, 0x3d, 0x33, 0xb0, 0x88, 0xbe, 0xb8, 0x52, 0xa2, 0x3d,
  0x52, 0xd9, 0xa6, 0x3c, 0x8e, 0x51, 0x42, 0xbd, 0xa0, 0x19, 0x54, 0x3e,
  0x8a, 0xdb, 0x93, 0xbe, 0x09, 0x89, 0xed, 0xbd, 0x4e, 0xb1, 0x82, 0x3d,
  0xd0, 0xf6, 0xbe, 0x3d, 0xb0, 0x3a, 0x8d, 0x3e, 0x5f, 0x1e, 0x8f, 0x3e,
  0xbd, 0x5d, 0x6a, 0x3d, 0x67, 0xa7, 0x2f, 0xbd, 0xd7, 0xf2, 0xae, 0x3e,
  0x95, 0xd1, 0x2a, 0x3e, 0x8e, 0xe0, 0x75, 0xbe, 0xa4, 0x24, 0xad, 0xbe,
  0x59, 0xf2, 0xf1, 0x3d, 0x95, 0x98, 0xa2, 0xbd, 0xcc, 0x54, 0x89, 0x3e,
  0x51, 0x87, 0x7b, 0x3e, 0x58, 0x0f, 0x40, 0x3e, 0xe6, 0xb1, 0x50, 0xbd,
  0x81, 0x24, 0x95, 0x3e, 0xfc, 0xd0, 0x87, 0x3e, 0x82, 0xf6, 0x27, 0xbe,
  0x08, 0xdb, 0xbc, 0xbd, 0xa9, 0x44, 0x3c, 0x3d, 0xe6, 0x13, 0x9d, 0x3c,
  0xd4, 0x37, 0xc1, 0xbc, 0x4d, 0x03, 0xd3, 0xbc, 0x3e, 0x55, 0x21, 0x3e,
  0x66, 0x35, 0x2c, 0x3e, 0x5d, 0xa0, 0xcc, 0x3d, 0xbd, 0xf6, 0xc8, 0xbd,
  0xdc, 0x6f, 0xee, 0xbd, 0x51, 0x9b, 0x6f, 0xbe, 0x86, 0x21, 0xa9, 0x3e,
  0x78, 0xff, 0xfa, 0x3d, 0x66, 0x7f, 0x51, 0x3e, 0x63, 0xd2, 0x49, 0x3e,
  0x46, 0xfc, 0x5d, 0x3e, 0xd1, 0x2c, 0x0c, 0xbd, 0x9f, 0x54, 0x05, 0xbd,
  0x32, 0x48, 0x2f, 0x3e, 0x0e, 0xb6, 0x25, 0xbe, 0xc4, 0xd2, 0x7b, 0x3e,
  0x7a, 0x30, 0x66, 0xbc, 0x37, 0x32, 0x81, 0x3e, 0x09, 0x12, 0x13, 0x3e,
  0xcd, 0x35, 0x98, 0x3e, 0x9c, 0x72, 0x70, 0xbe, 0x4e, 0xde, 0x8f, 0xbe,
  0xa1, 0x8e, 0x6a, 0x3e, 0xdb, 0x95, 0x39, 0xbd, 0x47, 0xed, 0x43, 0x3e,
  0xcb, 0x18, 0xf2, 0xbd, 0x35, 0xec, 0x66, 0x3e, 0x86, 0x08, 0x02, 0x3e,
  0xe4, 0xff, 0x42, 0x3e, 0xb9, 0x09, 0x90, 0xbe, 0x3b, 0x18, 0xee, 0x3b,
  0x3b, 0xbc, 0xda, 0xbd, 0x5c, 0x63, 0x3d, 0x3e, 0xdf, 0xe8, 0x25, 0xbe,
  0x72, 0x49, 0xce, 0xbd, 0x84, 0xff, 0x2b, 0xbe, 0xbb, 0x03, 0x62, 0x3e,
  0x53, 0x63, 0xd2, 0x3d, 0x39, 0x7b, 0xba, 0xbd, 0x09, 0x98, 0x14, 0xbe,
  0x2a, 0xbc, 0xf9, 0xbc, 0x85, 0x33, 0xb8, 0xbd, 0xd7, 0x02, 0x2c, 0x3e,
  0x3b, 0x34, 0x06, 0xbe, 0x0a, 0x93, 0x78, 0xbd, 0x63, 0x7d, 0x62, 0x3e,
  0xd5, 0xcb, 0xa1, 0x3e, 0x06, 0x46, 0x83, 0x3e, 0x8b, 0x61, 0x81, 0xbb,
  0xbf, 0x80, 0x34, 0xbe, 0x62, 0xb6, 0x80, 0xbe, 0xbd, 0xcc, 0x2a, 0x3c,
  0x1c, 0x74, 0x59, 0x3e, 0xc5, 0x98, 0x5b, 0x3e, 0xdd, 0xa1, 0xac, 0x3d,
  0xa9, 0x28, 0x19, 0x3e, 0xaf, 0x2b, 0xd7, 0xbc, 0x22, 0xc0, 0x98, 0x3c,
  0x5d, 0x69, 0x8c, 0xbc, 0x5e, 0xf3, 0x6f, 0x3c, 0x76, 0x25, 0xae, 0xbd,
  0x5d, 0xae, 0x02, 0x3e, 0x54, 0x80, 0x93, 0x3d, 0xe7, 0x41, 0x1a, 0x3e,
  0x57, 0x58, 0x3f, 0x3e, 0x45, 0xde, 0x54, 0x3c, 0xaa, 0x43, 0x75, 0xbe,
  0x13, 0x94, 0xf9, 0xbb, 0x15, 0xc6, 0x9d, 0xbd, 0x20, 0x8a, 0x0e, 0xbe,
  0xe5, 0x8d, 0x7e, 0x3c, 0xd1, 0xd3, 0x5e, 0xbe, 0xd8, 0x5c, 0x0e, 0x3e,
  0xc9, 0x20, 0xa0, 0x3d, 0x03, 0xc7, 0x1f, 0xbd, 0x7e, 0x99, 0xbf, 0x3d,
  0xb2, 0xa6, 0x27, 0xbe, 0x0b, 0x2d, 0x9e, 0xba, 0x3b, 0x48, 0x17, 0xbe,
  0xa8, 0x98, 0x1c, 0xbe, 0xbb, 0x79, 0x20, 0x3e, 0x86, 0xe5, 0x83, 0xbe,
  0xf8, 0x8a, 0x1e, 0x3e, 0xc6, 0xa4, 0x82, 0xbc, 0xf7, 0x95, 0xff, 0xbd,
  0x85, 0x82, 0x76, 0xbd, 0x60, 0xc0, 0x8a, 0x3d, 0x3c, 0x5f, 0x86, 0xbe,
  0xee, 0xe1, 0x93, 0x3d, 0xb4, 0xa4, 0xa3, 0x3b, 0x98, 0xfb, 0x5c, 0x3e,
  0xdb, 0xdd, 0x75, 0xbd, 0xe7, 0x76, 0x57, 0xbe, 0x98, 0x33, 0x31, 0xbd,
  0x77, 0x21, 0xcb, 0x3d, 0x31, 0xee, 0xb5, 0xbd, 0x08, 0x44, 0x89, 0xbc,
  0x07, 0x4f, 0x5d, 0x3e, 0x9c, 0xc0, 0xa7, 0x3d, 0xc0, 0xc2, 0xec, 0x3d,
  0x02, 0x94, 0x64, 0xbe, 0xf3, 0x7b, 0x7b, 0xbe, 0x4f, 0xdd, 0xa5, 0x3e,
  0xd9, 0x93, 0xec, 0xbc, 0x61, 0x65, 0xff, 0x3d, 0xb6, 0x77, 0x24, 0xbd,
  0x3f, 0x52, 0xe8, 0x3d, 0x02, 0xd8, 0x4f, 0x3e, 0x1f, 0x04, 0x0d, 0xbd,
  0xa8, 0xc8, 0x3b, 0x3d, 0xb3, 0x2e, 0x58, 0x3d, 0x73, 0xe1, 0xd3, 0xbd,
  0xf4, 0x05, 0x2c, 0x3e, 0x8b, 0x4f, 0xc1, 0xbd, 0x6d, 0xe1, 0x46, 0x3e,
  0xb8, 0x6d, 0x41, 0xbe, 0x58, 0x80, 0x53, 0xbd, 0xd1, 0x6c, 0x46, 0x3d,
  0xcf, 0xb4, 0x6f, 0xbe, 0x32, 0x55, 0x1b, 0x3e, 0xe5, 0x4a, 0xe7, 0xbd,
  0xbe, 0x9a, 0xd8, 0x3c, 0xde, 0x90, 0x5b, 0xbe, 0xc4, 0x58, 0x17, 0xbd,
  0x30, 0xca, 0x72, 0xbc, 0xb1, 0xbd, 0x92, 0x3d, 0x01, 0x91, 0x85, 0x3e,
  0x51, 0x80, 0x92, 0x3c, 0xd3, 0xd4, 0xc9, 0x3c, 0x1c, 0x29, 0x80, 0xbe,
  0x04, 0xf5, 0x06, 0x3e, 0xb2, 0x78, 0x41, 0xbe, 0x5e, 0x7c, 0x87, 0x3b,
  0x74, 0xfa, 0x8a, 0x3d, 0x9c, 0xf5, 0x3d, 0x3e, 0xcf, 0xc1, 0x03, 0x3e,
  0xa4, 0x7b, 0x30, 0x3d, 0xfb, 0xfa, 0x0b, 0xbd, 0x05, 0x27, 0x82, 0x3e,
  0x6d, 0xd6, 0x88, 0x3e, 0x81, 0x88, 0xb9, 0x3c, 0x9d, 0xb5, 0x0b, 0xbe,
  0xe5, 0xd6, 0x9e, 0xbe, 0x1f, 0xbf, 0x67, 0x3e, 0x9b, 0xe2, 0x0c, 0x3d,
  0xba, 0xf4, 0xb0, 0x3e, 0xba, 0x70, 0x76, 0x3d, 0xd0, 0x0e, 0x57, 0x3e,
  0xd3, 0xab, 0x0c, 0x3e, 0xb4, 0xfd, 0xac, 0x3c, 0x5d, 0xbd, 0x86, 0x3e,
  0xb4, 0x5d, 0xbc, 0xbb, 0x7a, 0x81, 0x3e, 0xbc, 0xef, 0x64, 0x82, 0xbd,
  0xff, 0x95, 0xb0, 0x3e, 0xc0, 0x34, 0x6e, 0x3e, 0xa9, 0xec, 0x3f, 0x3e,
  0x62, 0x1a, 0x92, 0xbc, 0xab, 0x1f, 0xe0, 0x3d, 0x21, 0xa0, 0xbc, 0x39,
  0xa5, 0xe1, 0xc5, 0xbd, 0x0c, 0x5c, 0xb5, 0xbe, 0x8b, 0x53, 0x19, 0x3e,
  0x2a, 0x9f, 0x0c, 0xbe, 0xce, 0x95, 0x84, 0x3e, 0x76, 0x51, 0xb2, 0x3e,
  0x0e, 0x2a, 0xa8, 0xbd, 0xf6, 0x4e, 0x27, 0x3e, 0xdb, 0x74, 0x08, 0xbe,
  0x4b, 0xfc, 0x7c, 0x3c, 0x09, 0x10, 0x1e, 0xbe, 0x5a, 0x1a, 0x49, 0x3d,
  0x04, 0x45, 0x13, 0xbd, 0x3d, 0x17, 0x1f, 0xbd, 0xca, 0x04, 0x81, 0x3e,
  0x97, 0xbf, 0xea, 0x3d, 0xd7, 0x90, 0x36, 0xbc, 0x96, 0x73, 0x4a, 0x3d,
  0xbd, 0x37, 0xa2, 0x3c, 0x0a, 0xff, 0x48, 0x3e, 0x81, 0x24, 0x96, 0xbc,
  0x96, 0xc4, 0x5d, 0x3e, 0x76, 0xe0, 0x2a, 0xbe, 0x36, 0x7c, 0x05, 0xbc,
  0xdf, 0x72, 0xa8, 0x3d, 0x29, 0xdd, 0x1f, 0xbd, 0x12, 0x6c, 0xcf, 0x3d,
  0x9a, 0xb8, 0x2b, 0xbd, 0xa8, 0x18, 0x2d, 0x3c, 0xe7, 0x2a, 0x80, 0xbd,
  0x48, 0x46, 0x64, 0x3c, 0x06, 0xc1, 0x8d, 0x3e, 0xf0, 0x75, 0x18, 0x3e,
  0xfa, 0x79, 0xf0, 0x3d, 0x2c, 0xa7, 0x2e, 0xbe, 0xe9, 0x6f, 0x94, 0x3d,
  0xf6, 0x49, 0x72, 0x3e, 0x17, 0x25, 0x71, 0xbe, 0xd8, 0xf9, 0x31, 0x3e,
  0xce, 0x23, 0x1b, 0xbd, 0x21, 0x91, 0x7d, 0x3e, 0xfd, 0x71, 0x36, 0x3e,
  0x35, 0x9c, 0x34, 0xbe, 0x6c, 0x4f, 0xf8, 0x3d, 0x7b, 0x67, 0x02, 0xbd,
  0x2d, 0x17, 0xde, 0x3d, 0xe3, 0xc6, 0xbb, 0xbd, 0x82, 0x4d, 0x4f, 0x3e,
  0xdb, 0x2c, 0x35, 0xbd, 0x2d, 0xfe, 0x93, 0xbd, 0x95, 0x85, 0x2a, 0xbe,
  0xa5, 0x4b, 0xfd, 0x3d, 0x64, 0x66, 0x70, 0xbe, 0x30, 0x27, 0xdd, 0x3c,
  0xf9, 0x0d, 0x72, 0xbd, 0xb3, 0x88, 0xb9, 0x3d, 0x0e, 0x42, 0x47, 0xbd,
  0x16, 0x5f, 0x00, 0xbd, 0xfc, 0x11, 0x8d, 0x3e, 0xf9, 0x8f, 0xa1, 0x3c,
  0x4f, 0xbd, 0x0f, 0x3e, 0x1e, 0xc4, 0x77, 0xbd, 0xba, 0x75, 0x76, 0x3e,
  0xa4, 0x1a, 0x55, 0x3c, 0x0d, 0x30, 0x74, 0x3d, 0xe9, 0xd9, 0x4f, 0xbc,
  0x6b, 0x15, 0x79, 0x3e, 0x42, 0xcb, 0xca, 0xbd, 0xbb, 0x21, 0x93, 0x3d,
  0x24, 0x3a, 0x90, 0x3c, 0x5b, 0xbe, 0xdc, 0xbd, 0x18, 0x76, 0x5f, 0xbe,
  0xd4, 0x85, 0x88, 0x3e, 0xd5, 0x9f, 0x98, 0x3e, 0x0f, 0x9a, 0x9c, 0xbd,
  0x5c, 0xa1, 0x44, 0x3e, 0x5f, 0x48, 0x61, 0x3e, 0xb9, 0x75, 0xbf, 0xbc,
  0xb7, 0xd0, 0xa8, 0xbc, 0x23, 0x08, 0x6a, 0x3e, 0xaf, 0xdd, 0x78, 0x3e,
  0xb8, 0x88, 0x12, 0x3e, 0x41, 0x66, 0x89, 0x3e, 0xc7, 0x57, 0x36, 0xbe,
  0x72, 0x77, 0xf1, 0x3d, 0xb5, 0x36, 0x03, 0x3e, 0xea, 0xdd, 0x72, 0x3e,
  0x3d, 0xcb, 0xc2, 0xbd, 0x53, 0x99, 0xb1, 0xbd, 0x04, 0xa5, 0x36, 0x3e,
  0xc5, 0xfa, 0xbe, 0x3e, 0x28, 0x11, 0x34, 0x3e, 0xb4, 0x23, 0x99, 0x3c,
  0xe0, 0xbc, 0xa1, 0xbe, 0x3f, 0xbb, 0x40, 0x3e, 0x7a, 0x46, 0x59, 0xbe,
  0x55, 0xf5, 0x0e, 0xbe, 0x52, 0x79, 0x6e, 0xbe, 0x7b, 0x83, 0x21, 0xbe,
  0xd3, 0x2a, 0x14, 0x3d, 0x49, 0x51, 0x34, 0x3e, 0x4d, 0x30, 0x02, 0x3d,
  0x37, 0x98, 0xc3, 0x3d, 0xa7, 0xac, 0x6d, 0x3e, 0xe0, 0x5d, 0xd4, 0x3d,
  0x6f, 0xe5, 0x70, 0xbe, 0x61, 0x4c, 0x01, 0xbd, 0xa5, 0xdf, 0x55, 0xbe,
  0x89, 0xc6, 0xee, 0x3d, 0x68, 0x8a, 0xa3, 0x3e, 0x49, 0x99, 0x57, 0x3e,
  0xbb, 0xef, 0x83, 0xbd, 0x40, 0x3b, 0xbc, 0xbe, 0x48, 0xd3, 0xd5, 0xbd,
  0x61, 0xa9, 0x00, 0x3e, 0x89, 0x89, 0xbc, 0xbb, 0x24, 0x13, 0x2c, 0x3e,
  0x05, 0x3d, 0xa0, 0xbc, 0x95, 0x32, 0x9e, 0x3e, 0xf7, 0x64, 0x85, 0x3e,
  0x08, 0x26, 0x95, 0x3e, 0x81, 0xa1, 0xb2, 0x3d, 0x13, 0x2a, 0x79, 0xbd,
  0x2a, 0xfe, 0x9b, 0xbe, 0x68, 0x92, 0x42, 0x3e, 0xaf, 0xbb, 0x51, 0x3e,
  0x47, 0xdd, 0xdf, 0x3b, 0x70, 0x23, 0xc5, 0x3e, 0x0b, 0x84, 0x02, 0x3e,
  0x1d, 0x86, 0xd2, 0x3d, 0xba, 0x80, 0x6b, 0xbe, 0xac, 0x3c, 0x1e, 0x3e,
  0x9d, 0x57, 0xc0, 0xbd, 0xff, 0x7f, 0xcb, 0x3d, 0x01, 0x47, 0x2d, 0x3e,
  0xa3, 0x90, 0x15, 0xbe, 0x52, 0x79, 0x9e, 0x3d, 0x0e, 0x7b, 0x28, 0xbe,
  0xb6, 0x47, 0x0e, 0xbe, 0x7f, 0x4c, 0x4a, 0x3e, 0x91, 0xab, 0x81, 0xbd,
  0x15, 0x59, 0x2e, 0xbe, 0x5c, 0xe8, 0x06, 0x3e, 0x2f, 0xa5, 0x3c, 0xbe,
  0xf0, 0x8f, 0xf0, 0xbd, 0x40, 0x8e, 0x3c, 0xbe, 0x14, 0x3e, 0x11, 0xbe,
  0x28, 0x91, 0xfa, 0x3d, 0x01, 0x87, 0x17, 0xbd, 0xfb, 0xc8, 0x5f, 0x3e,
  0x94, 0x14, 0xa8, 0x3d, 0xef, 0x92, 0x6d, 0x3d, 0x6e, 0xcc, 0xf1, 0x3c,
  0x3c, 0xaf, 0x53, 0xbe, 0x00, 0x92, 0x71, 0xbe, 0xf0, 0x7e, 0x01, 0x3c,
  0xe7, 0x23, 0x4b, 0x3e, 0xa2, 0x01, 0x6a, 0x3d, 0x4a, 0x96, 0x09, 0xbe,
  0xf6, 0x8d, 0x0e, 0xbe, 0xba, 0x2b, 0x63, 0xbd, 0x30, 0x86, 0x36, 0x3c,
  0x9b, 0x79, 0x72, 0x3e, 0x5f, 0x21, 0x58, 0xbe, 0xad, 0x42, 0x0a, 0xbe,
  0x3a, 0x2f, 0x6b, 0xbe, 0xd8, 0xc5, 0x9a, 0xbe, 0x9a, 0xcf, 0x74, 0x3e,
  0x35, 0x01, 0xfb, 0xbb, 0xb3, 0x74, 0x81, 0xbd, 0xa5, 0x2e, 0x76, 0x3d,
  0xa7, 0x5d, 0x64, 0x3e, 0xfa, 0xf0, 0xd5, 0x3d, 0xbd, 0x93, 0x48, 0xbd,
  0x07, 0x18, 0xa6, 0x3d, 0x46, 0x55, 0x60, 0xbe, 0x1d, 0x3a, 0xb6, 0xbd,
  0xe4, 0xd3, 0x74, 0xbe, 0x61, 0x85, 0x7b, 0xbe, 0x73, 0x4c, 0x5c, 0xbd,
  0xb9, 0xb4, 0xaf, 0x3e, 0x4b, 0x6e, 0x74, 0x3e, 0x3d, 0xb1, 0x73, 0xbc,
  0xac, 0x0c, 0x6f, 0x3e, 0x54, 0x17, 0x81, 0x3e, 0x61, 0x08, 0x35, 0x3e,
  0x42, 0x35, 0x9d, 0xbe, 0x62, 0x9e, 0xa2, 0x3d, 0xe7, 0xc2, 0x68, 0x3e,
  0xc6, 0xd1, 0x1a, 0x3e, 0xd8, 0x19, 0xc5, 0x3d, 0x37, 0x0e, 0x96, 0x3e,
  0x9c, 0xc5, 0x9a, 0x3e, 0xd0, 0x32, 0x26, 0x3e, 0xe1, 0x7d, 0x3f, 0xbe,
  0x43, 0xaa, 0x48, 0x3e, 0x9d, 0x8d, 0x19, 0x3e, 0x86, 0x44, 0x18, 0xbd,
  0x3d, 0xee, 0xef, 0x3d, 0x19, 0xdd, 0x8d, 0x3e, 0x48, 0x1d, 0xae, 0x3c,
  0xe5, 0x32, 0x47, 0xbe, 0xfe, 0x29, 0x23, 0x3e, 0x8e, 0x47, 0x77, 0x3d,
  0x46, 0xc8, 0x46, 0x3e, 0xd9, 0x8f, 0x9e, 0x3d, 0xe9, 0x14, 0x0c, 0x3e,
  0x96, 0xe9, 0x40, 0x3e, 0x22, 0xb5, 0x07, 0xbd, 0x64, 0x07, 0x9b, 0xbe,
  0x08, 0xb8, 0x4f, 0xbc, 0xe9, 0x52, 0x69, 0xbe, 0x16, 0x24, 0xa5, 0x3c,
  0x11, 0xb7, 0x8f, 0x3e, 0xdf, 0x2b, 0x4e, 0xbd, 0xaf, 0x4a, 0x76, 0x3e,
  0xfa, 0x1e, 0xf4, 0xbd, 0x41, 0xc9, 0xb3, 0x3d, 0xaa, 0x4d, 0x55, 0xbe,
  0xfd, 0x65, 0x15, 0xbe, 0x84, 0xa1, 0x1a, 0x3e, 0x90, 0xa8, 0xa5, 0x3e,
  0x01, 0x83, 0xe6, 0xbd, 0xe8, 0xcc, 0xa9, 0xbd, 0x05, 0x94, 0x36, 0x3e,
  0x97, 0x6e, 0xb7, 0x3e, 0xc7, 0xd6, 0x77, 0xbd, 0x6a, 0xf1, 0x77, 0xbd,
  0x93, 0x25, 0x2d, 0x3d, 0x8c, 0x8a, 0x79, 0xbe, 0x5a, 0xfd, 0xff, 0xff,
  0x04, 0x00, 0x00, 0x00, 0x00, 0x02, 0x00, 0x00, 0x29, 0xb0, 0xc8, 0xbe,
  0x15, 0x16, 0x66, 0xbe, 0x4c, 0xc4, 0xa4, 0x3e, 0x56, 0x67, 0x6d, 0xbe,
  0x39, 0x57, 0xcd, 0x3d, 0x95, 0x77, 0x87, 0xbe, 0xad, 0xfe, 0xab, 0xbd,
  0x6a, 0x72, 0xcb, 0x3d, 0xd4, 0x62, 0x7e, 0xbc, 0x92, 0xf1, 0xe9, 0xbd,
  0x7d, 0xe0, 0x89, 0xbe, 0xa2, 0x11, 0x8f, 0x3e, 0x5f, 0x2b, 0x64, 0x3e,
  0xd8, 0x36, 0x26, 0xbd, 0x09, 0xfc, 0x8a, 0xbc, 0xec, 0xda, 0x45, 0x3e,
  0x1d, 0x41, 0xbe, 0xbe, 0x4e, 0xb2, 0x03, 0xbd, 0x68, 0x18, 0x95, 0xbe,
  0x01, 0x70, 0xaf, 0x3e, 0xc2, 0x1a, 0x89, 0xbe, 0x2c, 0x5a, 0x83, 0x3e,
  0xba, 0xc9, 0xa3, 0xbe, 0x11, 0xae, 0x43, 0xbe, 0x1b, 0xfd, 0xab, 0x3d,
  0x3a, 0x01, 0xec, 0xbd, 0xff, 0xdf, 0x7b, 0xbe, 0x19, 0xd7, 0x70, 0x3d,
  0x89, 0x2c, 0xa9, 0xbe, 0x0d, 0x00, 0xe6, 0x3c, 0x17, 0x33, 0x13, 0xbb,
  0x52, 0x9c, 0x2a, 0x3e, 0x38, 0x51, 0x8f, 0x3e, 0x78, 0xca, 0x4f, 0x3d,
  0x58, 0x4d, 0xb7, 0x3e, 0xc4, 0x65, 0xb1, 0xbe, 0x60, 0x60, 0xd1, 0xbd,
  0x6f, 0x9d, 0x40, 0xbe, 0x9a, 0x36, 0x90, 0x3e, 0xb9, 0x76, 0x01, 0xbd,
  0x46, 0xd0, 0xa2, 0xbd, 0x16, 0x04, 0xea, 0xbb, 0x2f, 0x67, 0x13, 0xbe,
  0xa6, 0x67, 0xff, 0x3d, 0x6d, 0x41, 0xf3, 0x3e, 0xb7, 0x94, 0x16, 0xbe,
  0xc4, 0xec, 0x30, 0x3d, 0xcf, 0xfd, 0x0d, 0xbe, 0xb5, 0x55, 0x27, 0xbe,
  0x08, 0x4d, 0x39, 0xbe, 0xcf, 0x12, 0xbf, 0xbd, 0x1c, 0x67, 0xca, 0x3e,
  0xe6, 0x68, 0xd6, 0xbc, 0x07, 0xb9, 0x87, 0x3e, 0x53, 0xcb, 0x7a, 0x3e,
  0xb2, 0x0e, 0xae, 0xbd, 0x38, 0xee, 0xa8, 0xbe, 0x5d, 0xed, 0xbb, 0x3e,
  0x56, 0x71, 0x11, 0xbe, 0xf1, 0x01, 0x19, 0xbe, 0x18, 0xca, 0x46, 0x3e,
  0x80, 0xbb, 0x64, 0xbe, 0xe9, 0xb4, 0xb5, 0x3e, 0x47, 0x3f, 0xb9, 0x3d,
  0x55, 0x8a, 0x82, 0x3e, 0x98, 0x82, 0xb3, 0x3e, 0x85, 0xae, 0x29, 0x3e,
  0x34, 0x01, 0x2e, 0x3e, 0x63, 0xf4, 0x3e, 0xbe, 0x82, 0x1c, 0x0c, 0xbd,
  0x8a, 0xf4, 0x1d, 0xbd, 0x76, 0xc9, 0xae, 0xbe, 0xa6, 0x6d, 0x14, 0x3e,
  0x72, 0xad, 0x7c, 0xbe, 0xac, 0x2c, 0x39, 0x3e, 0x70, 0x9b, 0x51, 0x3d,
  0x6d, 0xa7, 0xa1, 0x3e, 0x99, 0x5a, 0x24, 0xba, 0xf5, 0xef, 0x71, 0x3e,
  0xfa, 0xb3, 0x84, 0xbd, 0x65, 0xa3, 0xcc, 0x3d, 0xe2, 0x11, 0xd2, 0xbe,
  0xdf, 0x8d, 0xa8, 0x3e, 0x94, 0x82, 0x08, 0xbe, 0x06, 0xdb, 0xf5, 0xbd,
  0x44, 0x1f, 0xa9, 0x3d, 0xd2, 0x1e, 0x9a, 0x3d, 0xa9, 0x64, 0x63, 0x3e,
  0xf1, 0xb4, 0xa9, 0x3e, 0xeb, 0x2e, 0xb0, 0x3d, 0x98, 0x03, 0x77, 0xbe,
  0xd1, 0x50, 0x85, 0x3e, 0x18, 0x36, 0xfc, 0xbd, 0x5c, 0xa4, 0xd5, 0xbe,
  0xa0, 0xf4, 0xb4, 0xbe, 0x06, 0xf9, 0x4f, 0xbe, 0xb1, 0x77, 0x65, 0xbe,
  0x7d, 0x01, 0xad, 0xbe, 0x3b, 0x4c, 0x92, 0xbd, 0x38, 0x37, 0x77, 0x3e,
  0x77, 0x37, 0x62, 0x3d, 0xb6, 0x2c, 0x96, 0x3e, 0x45, 0xb8, 0xf9, 0xbd,
  0x3d, 0xe9, 0x8b, 0x3e, 0x24, 0xa3, 0x58, 0x3e, 0x66, 0x0b, 0x85, 0x3e,
  0xd1, 0xd2, 0x18, 0xbb, 0x45, 0xcd, 0xc3, 0x3e, 0x2e, 0x0c, 0x1a, 0xbe,
  0xf6, 0x93, 0x75, 0xba, 0xab, 0xdf, 0x6a, 0x3e, 0xfd, 0xd2, 0x4a, 0x3e,
  0xdb, 0x9e, 0x6f, 0x3e, 0x57, 0x3c, 0x20, 0x3d, 0x79, 0xf4, 0x34, 0x3d,
  0x1d, 0x8c, 0xa9, 0xbe, 0x01, 0x43, 0xa3, 0x3e, 0xcf, 0x36, 0x24, 0xbe,
  0x48, 0xa4, 0x54, 0x3e, 0x6b, 0xdf, 0x37, 0x3e, 0x15, 0xf9, 0x9c, 0x3e,
  0x41, 0x80, 0x6f, 0xbe, 0x23, 0x5b, 0x1d, 0xbb, 0x7d, 0xb4, 0x9c, 0x3e,
  0x95, 0x2d, 0xfb, 0x3b, 0x9a, 0x09, 0x57, 0x3e, 0x5e, 0x11, 0xdf, 0x3c,
  0x09, 0xfb, 0x61, 0xbe, 0x2c, 0xf9, 0xff, 0xff, 0x30, 0xf9, 0xff, 0xff,
  0x0f, 0x00, 0x00, 0x00, 0x4d, 0x4c, 0x49, 0x52, 0x20, 0x43, 0x6f, 0x6e,
  0x76, 0x65, 0x72, 0x74, 0x65, 0x64, 0x2e, 0x00, 0x01, 0x00, 0x00, 0x00,
  0x14, 0x00, 0x00, 0x00, 0x00, 0x00, 0x0e, 0x00, 0x18, 0x00, 0x14, 0x00,
  0x10, 0x00, 0x0c, 0x00, 0x08, 0x00, 0x04, 0x00, 0x0e, 0x00, 0x00, 0x00,
  0x14, 0x00, 0x00, 0x00, 0x1c, 0x00, 0x00, 0x00, 0x5c, 0x01, 0x00, 0x00,
  0x60, 0x01, 0x00, 0x00, 0x64, 0x01, 0x00, 0x00, 0x04, 0x00, 0x00, 0x00,
  0x6d, 0x61, 0x69, 0x6e, 0x00, 0x00, 0x00, 0x00, 0x05, 0x00, 0x00, 0x00,
  0x04, 0x01, 0x00, 0x00, 0xbc, 0x00, 0x00, 0x00, 0x84, 0x00, 0x00, 0x00,
  0x50, 0x00, 0x00, 0x00, 0x14, 0x00, 0x00, 0x00, 0x00, 0x00, 0x0e, 0x00,
  0x1a, 0x00, 0x14, 0x00, 0x10, 0x00, 0x0c, 0x00, 0x0b, 0x00, 0x04, 0x00,
  0x0e, 0x00, 0x00, 0x00, 0x1c, 0x00, 0x00, 0x00, 0x00, 0x00, 0x00, 0x09,
  0x1c, 0x00, 0x00, 0x00, 0x20, 0x00, 0x00, 0x00, 0x01, 0x00, 0x00, 0x00,
  0x00, 0x00, 0x06, 0x00, 0x08, 0x00, 0x04, 0x00, 0x06, 0x00, 0x00, 0x00,
  0x00, 0x00, 0x80, 0x3f, 0x01, 0x00, 0x00, 0x00, 0x0d, 0x00, 0x00, 0x00,
  0x01, 0x00, 0x00, 0x00, 0x0c, 0x00, 0x00, 0x00, 0x66, 0xff, 0xff, 0xff,
  0x10, 0x00, 0x00, 0x00, 0x00, 0x00, 0x00, 0x08, 0x0c, 0x00, 0x00, 0x00,
  0x10, 0x00, 0x00, 0x00, 0xf8, 0xf9, 0xff, 0xff, 0x01, 0x00, 0x00, 0x00,
  0x0c, 0x00, 0x00, 0x00, 0x03, 0x00, 0x00, 0x00, 0x0b, 0x00, 0x00, 0x00,
  0x01, 0x00, 0x00, 0x00, 0x04, 0x00, 0x00, 0x00, 0x96, 0xff, 0xff, 0xff,
  0x10, 0x00, 0x00, 0x00, 0x00, 0x00, 0x00, 0x08, 0x10, 0x00, 0x00, 0x00,
  0x14, 0x00, 0x00, 0x00, 0x86, 0xff, 0xff, 0xff, 0x00, 0x00, 0x00, 0x01,
  0x01, 0x00, 0x00, 0x00, 0x0b, 0x00, 0x00, 0x00, 0x03, 0x00, 0x00, 0x00,
  0x0a, 0x00, 0x00, 0x00, 0x02, 0x00, 0x00, 0x00, 0x05, 0x00, 0x00, 0x00,
  0xca, 0xff, 0xff, 0xff, 0x10, 0x00, 0x00, 0x00, 0x00, 0x00, 0x00, 0x08,
  0x10, 0x00, 0x00, 0x00, 0x14, 0x00, 0x00, 0x00, 0xba, 0xff, 0xff, 0xff,
  0x00, 0x00, 0x00, 0x01, 0x01, 0x00, 0x00, 0x00, 0x0a, 0x00, 0x00, 0x00,
  0x03, 0x00, 0x00, 0x00, 0x09, 0x00, 0x00, 0x00, 0x03, 0x00, 0x00, 0x00,
  0x06, 0x00, 0x00, 0x00, 0x00, 0x00, 0x0e, 0x00, 0x16, 0x00, 0x00, 0x00,
  0x10, 0x00, 0x0c, 0x00, 0x0b, 0x00, 0x04, 0x00, 0x0e, 0x00, 0x00, 0x00,
  0x18, 0x00, 0x00, 0x00, 0x00, 0x00, 0x00, 0x08, 0x18, 0x00, 0x00, 0x00,
  0x1c, 0x00, 0x00, 0x00, 0x00, 0x00, 0x06, 0x00, 0x08, 0x00, 0x07, 0x00,
  0x06, 0x00, 0x00, 0x00, 0x00, 0x00, 0x00, 0x01, 0x01, 0x00, 0x00, 0x00,
  0x09, 0x00, 0x00, 0x00, 0x03, 0x00, 0x00, 0x00, 0x00, 0x00, 0x00, 0x00,
  0x08, 0x00, 0x00, 0x00, 0x07, 0x00, 0x00, 0x00, 0x01, 0x00, 0x00, 0x00,
  0x0d, 0x00, 0x00, 0x00, 0x01, 0x00, 0x00, 0x00, 0x00, 0x00, 0x00, 0x00,
  0x0e, 0x00, 0x00, 0x00, 0xfc, 0x04, 0x00, 0x00, 0xa4, 0x04, 0x00, 0x00,
  0x4c, 0x04, 0x00, 0x00, 0x0c, 0x04, 0x00, 0x00, 0xd0, 0x03, 0x00, 0x00,
  0x94, 0x03, 0x00, 0x00, 0x3c, 0x03, 0x00, 0x00, 0xe8, 0x02, 0x00, 0x00,
  0x9c, 0x02, 0x00, 0x00, 0x0c, 0x02, 0x00, 0x00, 0x74, 0x01, 0x00, 0x00,
  0xdc, 0x00, 0x00, 0x00, 0x60, 0x00, 0x00, 0x00, 0x04, 0x00, 0x00, 0x00,
  0x52, 0xfb, 0xff, 0xff, 0x00, 0x00, 0x00, 0x01, 0x14, 0x00, 0x00, 0x00,
  0x1c, 0x00, 0x00, 0x00, 0x1c, 0x00, 0x00, 0x00, 0x0e, 0x00, 0x00, 0x00,
  0x34, 0x00, 0x00, 0x00, 0x02, 0x00, 0x00, 0x00, 0xff, 0xff, 0xff, 0xff,
  0x02, 0x00, 0x00, 0x00, 0x3c, 0xfb, 0xff, 0xff, 0x1b, 0x00, 0x00, 0x00,
  0x53, 0x74, 0x61, 0x74, 0x65, 0x66, 0x75, 0x6c, 0x50, 0x61, 0x72, 0x74,
  0x69, 0x74, 0x69, 0x6f, 0x6e, 0x65, 0x64, 0x43, 0x61, 0x6c, 0x6c, 0x5f,
  0x31, 0x3a, 0x30, 0x00, 0x02, 0x00, 0x00, 0x00, 0x01, 0x00, 0x00, 0x00,
  0x02, 0x00, 0x00, 0x00, 0xaa, 0xfb, 0xff, 0xff, 0x00, 0x00, 0x00, 0x01,
  0x14, 0x00, 0x00, 0x00, 0x1c, 0x00, 0x00, 0x00, 0x1c, 0x00, 0x00, 0x00,
  0x0d, 0x00, 0x00, 0x00, 0x54, 0x00, 0x00, 0x00, 0x02, 0x00, 0x00, 0x00,
  0xff, 0xff, 0xff, 0xff, 0x02, 0x00, 0x00, 0x00, 0x94, 0xfb, 0xff, 0xff,
  0x38, 0x00, 0x00, 0x00, 0x73, 0x65, 0x71, 0x75, 0x65, 0x6e, 0x74, 0x69,
  0x61, 0x6c, 0x5f, 0x31, 0x2f, 0x64, 0x65, 0x6e, 0x73, 0x65, 0x5f, 0x33,
  0x5f, 0x31, 0x2f, 0x4d, 0x61, 0x74, 0x4d, 0x75, 0x6c, 0x3b, 0x73, 0x65,
  0x71, 0x75, 0x65, 0x6e, 0x74, 0x69, 0x61, 0x6c, 0x5f, 0x31, 0x2f, 0x64,
  0x65, 0x6e, 0x73, 0x65, 0x5f, 0x33, 0x5f, 0x31, 0x2f, 0x41, 0x64, 0x64,
  0x00, 0x00, 0x00, 0x00, 0x02, 0x00, 0x00, 0x00, 0x01, 0x00, 0x00, 0x00,
  0x02, 0x00, 0x00, 0x00, 0x22, 0xfc, 0xff, 0xff, 0x00, 0x00, 0x00, 0x01,
  0x14, 0x00, 0x00, 0x00, 0x1c, 0x00, 0x00, 0x00, 0x1c, 0x00, 0x00, 0x00,
  0x0c, 0x00, 0x00, 0x00, 0x70, 0x00, 0x00, 0x00, 0x02, 0x00, 0x00, 0x00,
  0xff, 0xff, 0xff, 0xff, 0x40, 0x00, 0x00, 0x00, 0x0c, 0xfc, 0xff, 0xff,
  0x54, 0x00, 0x00, 0x00, 0x73, 0x65, 0x71, 0x75, 0x65, 0x6e, 0x74, 0x69,
  0x61, 0x6c, 0x5f, 0x31, 0x2f, 0x64, 0x65, 0x6e, 0x73, 0x65, 0x5f, 0x32,
  0x5f, 0x31, 0x2f, 0x4d, 0x61, 0x74, 0x4d, 0x75, 0x6c, 0x3b, 0x73, 0x65,
  0x71, 0x75, 0x65, 0x6e, 0x74, 0x69, 0x61, 0x6c, 0x5f, 0x31, 0x2f, 0x64,
  0x65, 0x6e, 0x73, 0x65, 0x5f, 0x32, 0x5f, 0x31, 0x2f, 0x52, 0x65, 0x6c,
  0x75, 0x3b, 0x73, 0x65, 0x71, 0x75, 0x65, 0x6e, 0x74, 0x69, 0x61, 0x6c,
  0x5f, 0x31, 0x2f, 0x64, 0x65, 0x6e, 0x73, 0x65, 0x5f, 0x32, 0x5f, 0x31,
  0x2f, 0x41, 0x64, 0x64, 0x00, 0x00, 0x00, 0x00, 0x02, 0x00, 0x00, 0x00,
  0x01, 0x00, 0x00, 0x00, 0x40, 0x00, 0x00, 0x00, 0xb6, 0xfc, 0xff, 0xff,
  0x00, 0x00, 0x00, 0x01, 0x14, 0x00, 0x00, 0x00, 0x1c, 0x00, 0x00, 0x00,
  0x1c, 0x00, 0x00, 0x00, 0x0b, 0x00, 0x00, 0x00, 0x70, 0x00, 0x00, 0x00,
  0x02, 0x00, 0x00, 0x00, 0xff, 0xff, 0xff, 0xff, 0x20, 0x00, 0x00, 0x00,
  0xa0, 0xfc, 0xff, 0xff, 0x54, 0x00, 0x00, 0x00, 0x73, 0x65, 0x71, 0x75,
  0x65, 0x6e, 0x74, 0x69, 0x61, 0x6c, 0x5f, 0x31, 0x2f, 0x64, 0x65, 0x6e,
  0x73, 0x65, 0x5f, 0x31, 0x5f, 0x32, 0x2f, 0x4d, 0x61, 0x74, 0x4d, 0x75,
  0x6c, 0x3b, 0x73, 0x65, 0x71, 0x75, 0x65, 0x6e, 0x74, 0x69, 0x61, 0x6c,
  0x5f, 0x31, 0x2f, 0x64, 0x65, 0x6e, 0x73, 0x65, 0x5f, 0x31, 0x5f, 0x32,
  0x2f, 0x52, 0x65, 0x6c, 0x75, 0x3b, 0x73, 0x65, 0x71, 0x75, 0x65, 0x6e,
  0x74, 0x69, 0x61, 0x6c, 0x5f, 0x31, 0x2f, 0x64, 0x65, 0x6e, 0x73, 0x65,
  0x5f, 0x31, 0x5f, 0x32, 0x2f, 0x41, 0x64, 0x64, 0x00, 0x00, 0x00, 0x00,
  0x02, 0x00, 0x00, 0x00, 0x01, 0x00, 0x00, 0x00, 0x20, 0x00, 0x00, 0x00,
  0x4a, 0xfd, 0xff, 0xff, 0x00, 0x00, 0x00, 0x01, 0x14, 0x00, 0x00, 0x00,
  0x1c, 0x00, 0x00, 0x00, 0x1c, 0x00, 0x00, 0x00, 0x0a, 0x00, 0x00, 0x00,
  0x68, 0x00, 0x00, 0x00, 0x02, 0x00, 0x00, 0x00, 0xff, 0xff, 0xff, 0xff,
  0x10, 0x00, 0x00, 0x00, 0x34, 0xfd, 0xff, 0xff, 0x4e, 0x00, 0x00, 0x00,
  0x73, 0x65, 0x71, 0x75, 0x65, 0x6e, 0x74, 0x69, 0x61, 0x6c, 0x5f, 0x31,
  0x2f, 0x64, 0x65, 0x6e, 0x73, 0x65, 0x5f, 0x31, 0x2f, 0x4d, 0x61, 0x74,
  0x4d, 0x75, 0x6c, 0x3b, 0x73, 0x65, 0x71, 0x75, 0x65, 0x6e, 0x74, 0x69,
  0x61, 0x6c, 0x5f, 0x31, 0x2f, 0x64, 0x65, 0x6e, 0x73, 0x65, 0x5f, 0x31,
  0x2f, 0x52, 0x65, 0x6c, 0x75, 0x3b, 0x73, 0x65, 0x71, 0x75, 0x65, 0x6e,
  0x74, 0x69, 0x61, 0x6c, 0x5f, 0x31, 0x2f, 0x64, 0x65, 0x6e, 0x73, 0x65,
  0x5f, 0x31, 0x2f, 0x41, 0x64, 0x64, 0x00, 0x00, 0x02, 0x00, 0x00, 0x00,
  0x01, 0x00, 0x00, 0x00, 0x10, 0x00, 0x00, 0x00, 0x2a, 0xfe, 0xff, 0xff,
  0x00, 0x00, 0x00, 0x01, 0x10, 0x00, 0x00, 0x00, 0x10, 0x00, 0x00, 0x00,
  0x09, 0x00, 0x00, 0x00, 0x28, 0x00, 0x00, 0x00, 0xb0, 0xfd, 0xff, 0xff,
  0x1b, 0x00, 0x00, 0x00, 0x73, 0x65, 0x71, 0x75, 0x65, 0x6e, 0x74, 0x69,
  0x61, 0x6c, 0x5f, 0x31, 0x2f, 0x64, 0x65, 0x6e, 0x73, 0x65, 0x5f, 0x31,
  0x2f, 0x4d, 0x61, 0x74, 0x4d, 0x75, 0x6c, 0x00, 0x02, 0x00, 0x00, 0x00,
  0x10, 0x00, 0x00, 0x00, 0x04, 0x00, 0x00, 0x00, 0x72, 0xfe, 0xff, 0xff,
  0x00, 0x00, 0x00, 0x01, 0x10, 0x00, 0x00, 0x00, 0x10, 0x00, 0x00, 0x00,
  0x08, 0x00, 0x00, 0x00, 0x34, 0x00, 0x00, 0x00, 0xf8, 0xfd, 0xff, 0xff,
  0x27, 0x00, 0x00, 0x00, 0x73, 0x65, 0x71, 0x75, 0x65, 0x6e, 0x74, 0x69,
  0x61, 0x6c, 0x5f, 0x31, 0x2f, 0x64, 0x65, 0x6e, 0x73, 0x65, 0x5f, 0x31,
  0x2f, 0x41, 0x64, 0x64, 0x2f, 0x52, 0x65, 0x61, 0x64, 0x56, 0x61, 0x72,
  0x69, 0x61, 0x62, 0x6c, 0x65, 0x4f, 0x70, 0x00, 0x01, 0x00, 0x00, 0x00,
  0x10, 0x00, 0x00, 0x00, 0xc2, 0xfe, 0xff, 0xff, 0x00, 0x00, 0x00, 0x01,
  0x10, 0x00, 0x00, 0x00, 0x10, 0x00, 0x00, 0x00, 0x07, 0x00, 0x00, 0x00,
  0x38, 0x00, 0x00, 0x00, 0x48, 0xfe, 0xff, 0xff, 0x29, 0x00, 0x00, 0x00,
  0x73, 0x65, 0x71, 0x75, 0x65, 0x6e, 0x74, 0x69, 0x61, 0x6c, 0x5f, 0x31,
  0x2f, 0x64, 0x65, 0x6e, 0x73, 0x65, 0x5f, 0x31, 0x5f, 0x32, 0x2f, 0x41,
  0x64, 0x64, 0x2f, 0x52, 0x65, 0x61, 0x64, 0x56, 0x61, 0x72, 0x69, 0x61,
  0x62, 0x6c, 0x65, 0x4f, 0x70, 0x00, 0x00, 0x00, 0x01, 0x00, 0x00, 0x00,
  0x20, 0x00, 0x00, 0x00, 0x16, 0xff, 0xff, 0xff, 0x00, 0x00, 0x00, 0x01,
  0x10, 0x00, 0x00, 0x00, 0x10, 0x00, 0x00, 0x00, 0x06, 0x00, 0x00, 0x00,
  0x1c, 0x00, 0x00, 0x00, 0x9c, 0xfe, 0xff, 0xff, 0x0f, 0x00, 0x00, 0x00,
  0x61, 0x72, 0x69, 0x74, 0x68, 0x2e, 0x63, 0x6f, 0x6e, 0x73, 0x74, 0x61,
  0x6e, 0x74, 0x34, 0x00, 0x01, 0x00, 0x00, 0x00, 0x40, 0x00, 0x00, 0x00,
  0x4e, 0xff, 0xff, 0xff, 0x00, 0x00, 0x00, 0x01, 0x10, 0x00, 0x00, 0x00,
  0x10, 0x00, 0x00, 0x00, 0x05, 0x00, 0x00, 0x00, 0x1c, 0x00, 0x00, 0x00,
  0xd4, 0xfe, 0xff, 0xff, 0x0f, 0x00, 0x00, 0x00, 0x61, 0x72, 0x69, 0x74,
  0x68, 0x2e, 0x63, 0x6f, 0x6e, 0x73, 0x74, 0x61, 0x6e, 0x74, 0x33, 0x00,
  0x01, 0x00, 0x00, 0x00, 0x02, 0x00, 0x00, 0x00, 0x86, 0xff, 0xff, 0xff,
  0x00, 0x00, 0x00, 0x01, 0x10, 0x00, 0x00, 0x00, 0x10, 0x00, 0x00, 0x00,
  0x04, 0x00, 0x00, 0x00, 0x1c, 0x00, 0x00, 0x00, 0x0c, 0xff, 0xff, 0xff,
  0x0f, 0x00, 0x00, 0x00, 0x61, 0x72, 0x69, 0x74, 0x68, 0x2e, 0x63, 0x6f,
  0x6e, 0x73, 0x74, 0x61, 0x6e, 0x74, 0x32, 0x00, 0x02, 0x00, 0x00, 0x00,
  0x20, 0x00, 0x00, 0x00, 0x10, 0x00, 0x00, 0x00, 0xc2, 0xff, 0xff, 0xff,
  0x00, 0x00, 0x00, 0x01, 0x10, 0x00, 0x00, 0x00, 0x10, 0x00, 0x00, 0x00,
  0x03, 0x00, 0x00, 0x00, 0x1c, 0x00, 0x00, 0x00, 0x48, 0xff, 0xff, 0xff,
  0x0f, 0x00, 0x00, 0x00, 0x61, 0x72, 0x69, 0x74, 0x68, 0x2e, 0x63, 0x6f,
  0x6e, 0x73, 0x74, 0x61, 0x6e, 0x74, 0x31, 0x00, 0x02, 0x00, 0x00, 0x00,
  0x40, 0x00, 0x00, 0x00, 0x20, 0x00, 0x00, 0x00, 0x00, 0x00, 0x16, 0x00,
  0x18, 0x00, 0x14, 0x00, 0x00, 0x00, 0x10, 0x00, 0x0c, 0x00, 0x08, 0x00,
  0x00, 0x00, 0x00, 0x00, 0x00, 0x00, 0x07, 0x00, 0x16, 0x00, 0x00, 0x00,
  0x00, 0x00, 0x00, 0x01, 0x10, 0x00, 0x00, 0x00, 0x10, 0x00, 0x00, 0x00,
  0x02, 0x00, 0x00, 0x00, 0x1c, 0x00, 0x00, 0x00, 0x9c, 0xff, 0xff, 0xff,
  0x0e, 0x00, 0x00, 0x00, 0x61, 0x72, 0x69, 0x74, 0x68, 0x2e, 0x63, 0x6f,
  0x6e, 0x73, 0x74, 0x61, 0x6e, 0x74, 0x00, 0x00, 0x02, 0x00, 0x00, 0x00,
  0x02, 0x00, 0x00, 0x00, 0x40, 0x00, 0x00, 0x00, 0x00, 0x00, 0x16, 0x00,
  0x1c, 0x00, 0x18, 0x00, 0x00, 0x00, 0x14, 0x00, 0x10, 0x00, 0x0c, 0x00,
  0x00, 0x00, 0x00, 0x00, 0x08, 0x00, 0x07, 0x00, 0x16, 0x00, 0x00, 0x00,
  0x00, 0x00, 0x00, 0x01, 0x14, 0x00, 0x00, 0x00, 0x20, 0x00, 0x00, 0x00,
  0x20, 0x00, 0x00, 0x00, 0x01, 0x00, 0x00, 0x00, 0x3c, 0x00, 0x00, 0x00,
  0x02, 0x00, 0x00, 0x00, 0xff, 0xff, 0xff, 0xff, 0x04, 0x00, 0x00, 0x00,
  0x04, 0x00, 0x04, 0x00, 0x04, 0x00, 0x00, 0x00, 0x1d, 0x00, 0x00, 0x00,
  0x73, 0x65, 0x72, 0x76, 0x69, 0x6e, 0x67, 0x5f, 0x64, 0x65, 0x66, 0x61,
  0x75, 0x6c, 0x74, 0x5f, 0x69, 0x6e, 0x70, 0x75, 0x74, 0x5f, 0x6c, 0x61,
  0x79, 0x65, 0x72, 0x3a, 0x30, 0x00, 0x00, 0x00, 0x02, 0x00, 0x00, 0x00,
  0x01, 0x00, 0x00, 0x00, 0x04, 0x00, 0x00, 0x00, 0x02, 0x00, 0x00, 0x00,
  0x20, 0x00, 0x00, 0x00, 0x04, 0x00, 0x00, 0x00, 0xf4, 0xff, 0xff, 0xff,
  0x19, 0x00, 0x00, 0x00, 0x00, 0x00, 0x00, 0x19, 0x0c, 0x00, 0x0c, 0x00,
  0x0b, 0x00, 0x00, 0x00, 0x00, 0x00, 0x04, 0x00, 0x0c, 0x00, 0x00, 0x00,
  0x09, 0x00, 0x00, 0x00, 0x00, 0x00, 0x00, 0x09
};
static unsigned int model_tflite_len = 13916;

#endif